{
  "version": "1.0",
  "truncation": null,
  "padding": null,
  "added_tokens": [
    {
      "id": 0,
      "content": "<s>",
      "single_word": false,
      "lstrip": false,
      "rstrip": false,
      "normalized": false,
      "special": true
    },
    {
      "id": 1,
      "content": "<pad>",
      "single_word": false,
      "lstrip": false,
      "rstrip": false,
      "normalized": false,
      "special": true
    },
    {
      "id": 2,
      "content": "</s>",
      "single_word": false,
      "lstrip": false,
      "rstrip": false,
      "normalized": false,
      "special": true
    },
    {
      "id": 3,
      "content": "<mask>",
      "single_word": false,
      "lstrip": false,
      "rstrip": false,
      "normalized": false,
      "special": true
    },
    {
      "id": 4,
      "content": "<lang:en>",
      "single_word": false,
      "lstrip": false,
      "rstrip": false,
      "normalized": false,
      "special": true
    },
    {
      "id": 5,
      "content": "<lang:vi>",
      "single_word": false,
      "lstrip": false,
      "rstrip": false,
      "normalized": false,
      "special": true
    },
    {
      "id": 6,
      "content": "<emotion1>",
      "single_word": false,
      "lstrip": false,
      "rstrip": false,
      "normalized": false,
      "special": true
    },
    {
      "id": 7,
      "content": "<emotion2>",
      "single_word": false,
      "lstrip": false,
      "rstrip": false,
      "normalized": false,
      "special": true
    },
    {
      "id": 8,
      "content": "<emotion3>",
      "single_word": false,
      "lstrip": false,
      "rstrip": false,
      "normalized": false,
      "special": true
    },
    {
      "id": 9,
      "content": "<emotion4>",
      "single_word": false,
      "lstrip": false,
      "rstrip": false,
      "normalized": false,
      "special": true
    },
    {
      "id": 10,
      "content": "<emotion5>",
      "single_word": false,
      "lstrip": false,
      "rstrip": false,
      "normalized": false,
      "special": true
    },
    {
      "id": 11,
      "content": "<emotion6>",
      "single_word": false,
      "lstrip": false,
      "rstrip": false,
      "normalized": false,
      "special": true
    },
    {
      "id": 12,
      "content": "<emotion7>",
      "single_word": false,
      "lstrip": false,
      "rstrip": false,
      "normalized": false,
      "special": true
    },
    {
      "id": 13,
      "content": "<emotion8>",
      "single_word": false,
      "lstrip": false,
      "rstrip": false,
      "normalized": false,
      "special": true
    },
    {
      "id": 14,
      "content": "<emotion9>",
      "single_word": false,
      "lstrip": false,
      "rstrip": false,
      "normalized": false,
      "special": true
    },
    {
      "id": 15,
      "content": "<speaker1>",
      "single_word": false,
      "lstrip": false,
      "rstrip": false,
      "normalized": false,
      "special": true
    },
    {
      "id": 16,
      "content": "<speaker2>",
      "single_word": false,
      "lstrip": false,
      "rstrip": false,
      "normalized": false,
      "special": true
    },
    {
      "id": 17,
      "content": "<speaker3>",
      "single_word": false,
      "lstrip": false,
      "rstrip": false,
      "normalized": false,
      "special": true
    },
    {
      "id": 18,
      "content": "<speaker4>",
      "single_word": false,
      "lstrip": false,
      "rstrip": false,
      "normalized": false,
      "special": true
    },
    {
      "id": 19,
      "content": "<speaker5>",
      "single_word": false,
      "lstrip": false,
      "rstrip": false,
      "normalized": false,
      "special": true
    },
    {
      "id": 20,
      "content": "<speaker6>",
      "single_word": false,
      "lstrip": false,
      "rstrip": false,
      "normalized": false,
      "special": true
    },
    {
      "id": 21,
      "content": "<speaker7>",
      "single_word": false,
      "lstrip": false,
      "rstrip": false,
      "normalized": false,
      "special": true
    },
    {
      "id": 22,
      "content": "<speaker8>",
      "single_word": false,
      "lstrip": false,
      "rstrip": false,
      "normalized": false,
      "special": true
    },
    {
      "id": 23,
      "content": "<speaker9>",
      "single_word": false,
      "lstrip": false,
      "rstrip": false,
      "normalized": false,
      "special": true
    }
  ],
  "normalizer": null,
  "pre_tokenizer": {
    "type": "Sequence",
    "pretokenizers": [
      {
        "type": "Punctuation",
        "behavior": "Isolated"
      },
      {
        "type": "Digits",
        "individual_digits": false
      },
      {
        "type": "Split",
        "pattern": {
          "String": " "
        },
        "behavior": "Isolated",
        "invert": false
      },
      {
        "type": "ByteLevel",
        "add_prefix_space": false,
        "trim_offsets": true,
        "use_regex": false
      }
    ]
  },
  "post_processor": null,
  "decoder": {
    "type": "ByteLevel",
    "add_prefix_space": true,
    "trim_offsets": true,
    "use_regex": true
  },
  "model": {
    "type": "BPE",
    "dropout": null,
    "unk_token": null,
    "continuing_subword_prefix": null,
    "end_of_word_suffix": null,
    "fuse_unk": false,
    "byte_fallback": false,
    "ignore_merges": false,
    "vocab": {
      "<s>": 0,
      "<pad>": 1,
      "</s>": 2,
      "<mask>": 3,
      "<lang:en>": 4,
      "<lang:vi>": 5,
      "<emotion1>": 6,
      "<emotion2>": 7,
      "<emotion3>": 8,
      "<emotion4>": 9,
      "<emotion5>": 10,
      "<emotion6>": 11,
      "<emotion7>": 12,
      "<emotion8>": 13,
      "<emotion9>": 14,
      "<speaker1>": 15,
      "<speaker2>": 16,
      "<speaker3>": 17,
      "<speaker4>": 18,
      "<speaker5>": 19,
      "<speaker6>": 20,
      "<speaker7>": 21,
      "<speaker8>": 22,
      "<speaker9>": 23,
      "!": 24,
      "\"": 25,
      "#": 26,
      "$": 27,
      "%": 28,
      "&": 29,
      "'": 30,
      "(": 31,
      ")": 32,
      "*": 33,
      "+": 34,
      ",": 35,
      "-": 36,
      ".": 37,
      "/": 38,
      "0": 39,
      "1": 40,
      "2": 41,
      "3": 42,
      "4": 43,
      "5": 44,
      "6": 45,
      "7": 46,
      "8": 47,
      "9": 48,
      ":": 49,
      ";": 50,
      "<": 51,
      "=": 52,
      ">": 53,
      "?": 54,
      "@": 55,
      "A": 56,
      "B": 57,
      "C": 58,
      "D": 59,
      "E": 60,
      "F": 61,
      "G": 62,
      "H": 63,
      "I": 64,
      "J": 65,
      "K": 66,
      "L": 67,
      "M": 68,
      "N": 69,
      "O": 70,
      "P": 71,
      "Q": 72,
      "R": 73,
      "S": 74,
      "T": 75,
      "U": 76,
      "V": 77,
      "W": 78,
      "X": 79,
      "Y": 80,
      "Z": 81,
      "[": 82,
      "\\": 83,
      "]": 84,
      "^": 85,
      "_": 86,
      "`": 87,
      "a": 88,
      "b": 89,
      "c": 90,
      "d": 91,
      "e": 92,
      "f": 93,
      "g": 94,
      "h": 95,
      "i": 96,
      "j": 97,
      "k": 98,
      "l": 99,
      "m": 100,
      "n": 101,
      "o": 102,
      "p": 103,
      "q": 104,
      "r": 105,
      "s": 106,
      "t": 107,
      "u": 108,
      "v": 109,
      "w": 110,
      "x": 111,
      "y": 112,
      "z": 113,
      "{": 114,
      "|": 115,
      "}": 116,
      "~": 117,
      "¡": 118,
      "¢": 119,
      "£": 120,
      "¤": 121,
      "¥": 122,
      "¦": 123,
      "§": 124,
      "¨": 125,
      "©": 126,
      "ª": 127,
      "«": 128,
      "¬": 129,
      "®": 130,
      "¯": 131,
      "°": 132,
      "±": 133,
      "²": 134,
      "³": 135,
      "´": 136,
      "µ": 137,
      "¶": 138,
      "·": 139,
      "¸": 140,
      "¹": 141,
      "º": 142,
      "»": 143,
      "¼": 144,
      "½": 145,
      "¾": 146,
      "¿": 147,
      "Â": 148,
      "Ã": 149,
      "Ä": 150,
      "Å": 151,
      "Æ": 152,
      "Ç": 153,
      "È": 154,
      "É": 155,
      "Ê": 156,
      "Ë": 157,
      "Ì": 158,
      "Í": 159,
      "Î": 160,
      "Ï": 161,
      "Ð": 162,
      "Ñ": 163,
      "Ò": 164,
      "Ó": 165,
      "Ô": 166,
      "Õ": 167,
      "Ö": 168,
      "×": 169,
      "Ø": 170,
      "Ù": 171,
      "Ú": 172,
      "Û": 173,
      "Ü": 174,
      "Ý": 175,
      "Þ": 176,
      "ß": 177,
      "à": 178,
      "á": 179,
      "â": 180,
      "ã": 181,
      "ä": 182,
      "å": 183,
      "æ": 184,
      "ç": 185,
      "è": 186,
      "é": 187,
      "ê": 188,
      "ë": 189,
      "ì": 190,
      "í": 191,
      "î": 192,
      "ï": 193,
      "ð": 194,
      "ñ": 195,
      "ò": 196,
      "ó": 197,
      "ô": 198,
      "Ā": 199,
      "ā": 200,
      "Ă": 201,
      "ă": 202,
      "Ą": 203,
      "ą": 204,
      "Ć": 205,
      "ć": 206,
      "Ĉ": 207,
      "ĉ": 208,
      "Ċ": 209,
      "Ď": 210,
      "ď": 211,
      "Đ": 212,
      "đ": 213,
      "Ē": 214,
      "ē": 215,
      "Ĕ": 216,
      "ĕ": 217,
      "Ė": 218,
      "ė": 219,
      "Ę": 220,
      "ę": 221,
      "Ě": 222,
      "ě": 223,
      "ğ": 224,
      "Ġ": 225,
      "ġ": 226,
      "Ģ": 227,
      "ģ": 228,
      "Ĥ": 229,
      "ĥ": 230,
      "Ħ": 231,
      "ħ": 232,
      "Ĩ": 233,
      "ĩ": 234,
      "Ī": 235,
      "ī": 236,
      "Ĭ": 237,
      "ĭ": 238,
      "Į": 239,
      "į": 240,
      "İ": 241,
      "ı": 242,
      "Ĳ": 243,
      "ĳ": 244,
      "Ĵ": 245,
      "ĵ": 246,
      "Ķ": 247,
      "ķ": 248,
      "ĸ": 249,
      "Ĺ": 250,
      "ĺ": 251,
      "Ļ": 252,
      "ļ": 253,
      "Ľ": 254,
      "ľ": 255,
      "Ŀ": 256,
      "ŀ": 257,
      "Ł": 258,
      "ł": 259,
      "Ń": 260,
      "á»": 261,
      "áº": 262,
      "ng": 263,
      "th": 264,
      "nh": 265,
      "Äĳ": 266,
      "Ãł": 267,
      "ch": 268,
      "Æ°": 269,
      "Ã¡": 270,
      "tr": 271,
      "an": 272,
      "iá»": 273,
      "er": 274,
      "Æ°á»": 275,
      "áº¡": 276,
      "áº¿": 277,
      "on": 278,
      "in": 279,
      "Ã´": 280,
      "kh": 281,
      "ti": 282,
      "áº£": 283,
      "Ãª": 284,
      "re": 285,
      "Ã³": 286,
      "the": 287,
      "á»Ļ": 288,
      "áº¥": 289,
      "ph": 290,
      "en": 291,
      "or": 292,
      "á»ĳ": 293,
      "iá»ĩ": 294,
      "ou": 295,
      "es": 296,
      "Ã¢": 297,
      "al": 298,
      "to": 299,
      "Ãªn": 300,
      "Ã´ng": 301,
      "at": 302,
      "Ã¬": 303,
      "is": 304,
      "Äĳá»": 305,
      "vá»": 306,
      "vÃł": 307,
      "ar": 308,
      "Æ¡": 309,
      "há»": 310,
      "gi": 311,
      "ed": 312,
      "cá»": 313,
      "qu": 314,
      "áºŃ": 315,
      "and": 316,
      "thá»": 317,
      "ing": 318,
      "áº§": 319,
      "as": 320,
      "lÃł": 321,
      "Ã¡c": 322,
      "ÃŃ": 323,
      "of": 324,
      "Ľi": 325,
      "ay": 326,
      "Æ°á»Ŀ": 327,
      "it": 328,
      "Æ°á»£": 329,
      "tá»": 330,
      "áº¥t": 331,
      "Äĥ": 332,
      "le": 333,
      "uy": 334,
      "ong": 335,
      "cÃ³": 336,
      "cá»§": 337,
      "áº¡i": 338,
      "cá»§a": 339,
      "am": 340,
      "Th": 341,
      "om": 342,
      "Ãº": 343,
      "chá»": 344,
      "iáº¿": 345,
      "áº¯": 346,
      "ÄĲ": 347,
      "Ã£": 348,
      "ho": 349,
      "Ã¬nh": 350,
      "iá»ģ": 351,
      "Æ°á»£c": 352,
      "lo": 353,
      "st": 354,
      "ic": 355,
      "Ã¢n": 356,
      "dá»": 357,
      "ai": 358,
      "tion": 359,
      "âĢ": 360,
      "á»Ļt": 361,
      "el": 362,
      "cÃ¡c": 363,
      "cho": 364,
      "ÄĳÆ°á»£c": 365,
      "sá»": 366,
      "20": 367,
      "ra": 368,
      "khÃ´ng": 369,
      "Ã²": 370,
      "á»¯": 371,
      "Ãły": 372,
      "Ã¹": 373,
      "lá»": 374,
      "se": 375,
      "ent": 376,
      "ro": 377,
      "áº·": 378,
      "ac": 379,
      "bá»": 380,
      "iá»ĩn": 381,
      "má»": 382,
      "trong": 383,
      "ang": 384,
      "áº¡n": 385,
      "má»Ļt": 386,
      "il": 387,
      "em": 388,
      "áº§n": 389,
      "vá»Ľi": 390,
      "for": 391,
      "Æ°á»Ľ": 392,
      "Æ°á»Ŀi": 393,
      "ve": 394,
      "si": 395,
      "ao": 396,
      "anh": 397,
      "iá»ģu": 398,
      "be": 399,
      "you": 400,
      "ad": 401,
      "Æ°Æ¡": 402,
      "iá»ĥ": 403,
      "iÃªn": 404,
      "au": 405,
      "©ng": 406,
      "áº£i": 407,
      "ly": 408,
      "ngÆ°á»Ŀi": 409,
      "Ãłng": 410,
      "áº£n": 411,
      "Ãłnh": 412,
      "Æ°á»Ŀng": 413,
      "áº¿n": 414,
      "trá»": 415,
      "Æ°Æ¡ng": 416,
      "Ã¡ch": 417,
      "á»¯ng": 418,
      "nhá»¯ng": 419,
      "nhÆ°": 420,
      "hi": 421,
      "Ãłn": 422,
      "áº§u": 423,
      "Ãłi": 424,
      "Äĳá»Ļ": 425,
      "et": 426,
      "con": 427,
      "±c": 428,
      "©c": 429,
      "su": 430,
      "Ã¢y": 431,
      "Æ°á»Ľc": 432,
      "ol": 433,
      "áº¿t": 434,
      "Tr": 435,
      "thá»ĥ": 436,
      "ver": 437,
      "uyá»": 438,
      "Äĳá»ĥ": 439,
      "áºŃn": 440,
      "de": 441,
      "do": 442,
      "cu": 443,
      "Ã´i": 444,
      "ÄĳÃ£": 445,
      "gh": 446,
      "are": 447,
      "báº¡n": 448,
      "ter": 449,
      "li": 450,
      "Äĥng": 451,
      "Ã¹ng": 452,
      "ÃŃnh": 453,
      "Ch": 454,
      "áºŃt": 455,
      "wi": 456,
      "áº½": 457,
      "á»ĳi": 458,
      "ta": 459,
      "Ŀi": 460,
      "ngh": 461,
      "no": 462,
      "áº©": 463,
      "Ã½": 464,
      "un": 465,
      "that": 466,
      "ri": 467,
      "Æ¡n": 468,
      "com": 469,
      "á»Ł": 470,
      "vi": 471,
      "iáº¿t": 472,
      "ation": 473,
      "á»ĳng": 474,
      "ce": 475,
      "nÃły": 476,
      "us": 477,
      "inh": 478,
      "cÃ´ng": 479,
      "Äĥn": 480,
      "á»ĵ": 481,
      "00": 482,
      "ung": 483,
      "Ã©": 484,
      "with": 485,
      "tá»«": 486,
      "The": 487,
      "Äĳáº¿n": 488,
      "Ng": 489,
      "há»į": 490,
      "ag": 491,
      "ab": 492,
      "sáº½": 493,
      "Ã¡n": 494,
      "iá»ĩt": 495,
      "Ã¡t": 496,
      "khi": 497,
      "Å©ng": 498,
      "giá»": 499,
      "di": 500,
      "thu": 501,
      "Ã¡i": 502,
      "dá»¥": 503,
      "á»Ļi": 504,
      "tu": 505,
      "ÄĳÃ³": 506,
      "á»ķ": 507,
      "Äĥm": 508,
      "pro": 509,
      "vá»ģ": 510,
      "ec": 511,
      "cáº£": 512,
      "lÃłm": 513,
      "á»ĳc": 514,
      "áº±": 515,
      "iá»ĩu": 516,
      "Ph": 517,
      "ers": 518,
      "Ã¡ng": 519,
      "mo": 520,
      "we": 521,
      "nhiá»ģu": 522,
      "lu": 523,
      "cÅ©ng": 524,
      "áº¥y": 525,
      "ap": 526,
      "so": 527,
      "áºŃp": 528,
      "vÃło": 529,
      "mÃł": 530,
      "ke": 531,
      "mu": 532,
      "ts": 533,
      "Ãªu": 534,
      "201": 535,
      "trÃªn": 536,
      "áº«": 537,
      "iáº¿n": 538,
      "Ã¡o": 539,
      "láº¡i": 540,
      "táº¡i": 541,
      "ex": 542,
      "bu": 543,
      "Ã²ng": 544,
      "dá»¥ng": 545,
      "hÃłng": 546,
      "Äĳá»ĭ": 547,
      "ÃŃch": 548,
      "nhÃł": 549,
      "iá»ĩc": 550,
      "Ãºng": 551,
      "im": 552,
      "ting": 553,
      "chá»ī": 554,
      "Nh": 555,
      "ir": 556,
      "nháº¥t": 557,
      "Ãło": 558,
      "po": 559,
      "Äĳáº§u": 560,
      "sá»±": 561,
      "ther": 562,
      "áº£o": 563,
      "ne": 564,
      "nÃ³": 565,
      "sá»ĳ": 566,
      "áº¥p": 567,
      "áº·c": 568,
      "bá»ĭ": 569,
      "hiá»ĩn": 570,
      "áº¯c": 571,
      "Qu": 572,
      "áº·t": 573,
      "all": 574,
      "Æ°á»£ng": 575,
      "me": 576,
      "âĢĵ": 577,
      "ill": 578,
      "Ã¢m": 579,
      "ĭch": 580,
      "ess": 581,
      "he": 582,
      "¥c": 583,
      "áº»": 584,
      "ha": 585,
      "Äĳá»Ļng": 586,
      "our": 587,
      "pl": 588,
      "oo": 589,
      "Ä©": 590,
      "Äĳá»ĵ": 591,
      "out": 592,
      "áº¹": 593,
      "thÃłnh": 594,
      "Ã¡nh": 595,
      "ate": 596,
      "viá»ĩc": 597,
      "one": 598,
      "Ã²n": 599,
      "áº±ng": 600,
      "res": 601,
      "Ã¢u": 602,
      "du": 603,
      "Æ¡i": 604,
      "thÃ¬": 605,
      "pháº£i": 606,
      "Ã¡p": 607,
      "te": 608,
      "áº¡o": 609,
      "nÄĥm": 610,
      "iá»ģn": 611,
      "uyÃªn": 612,
      "iá»ĥm": 613,
      "per": 614,
      "co": 615,
      "Ã´n": 616,
      "ngÃły": 617,
      "ld": 618,
      "Ãºc": 619,
      "£p": 620,
      "áº¯t": 621,
      "há»įc": 622,
      "áº¡t": 623,
      "tiáº¿": 624,
      "ity": 625,
      "ment": 626,
      "xu": 627,
      "giÃ¡": 628,
      "áº©m": 629,
      "fr": 630,
      "hÆ¡n": 631,
      "nÆ°á»Ľc": 632,
      "há»£p": 633,
      "ine": 634,
      "á»Ļc": 635,
      "Ã¡y": 636,
      "sáº£n": 637,
      "ģn": 638,
      "áº«n": 639,
      "your": 640,
      "ká»": 641,
      "ma": 642,
      "ul": 643,
      "tin": 644,
      "wh": 645,
      "ty": 646,
      "chÃŃnh": 647,
      "oun": 648,
      "can": 649,
      "áº¥n": 650,
      "ia": 651,
      "quan": 652,
      "quy": 653,
      "Ãªm": 654,
      "tÃ´i": 655,
      "uyá»ĩ": 656,
      "In": 657,
      "by": 658,
      "á»ĳt": 659,
      "kho": 660,
      "nghiá»ĩ": 661,
      "Äĳá»ģ": 662,
      "nÃªn": 663,
      "ráº¥t": 664,
      "nhÃ¢n": 665,
      "Äĳi": 666,
      "gia": 667,
      "sá»Ń": 668,
      "áº£ng": 669,
      "áº¿u": 670,
      "mÃ¬nh": 671,
      "há»ĩ": 672,
      "cao": 673,
      "thá»Ŀi": 674,
      "have": 675,
      "cÃ¡ch": 676,
      "cÃ²n": 677,
      "was": 678,
      "Æ°a": 679,
      "cÃ¹ng": 680,
      "est": 681,
      "10": 682,
      "ere": 683,
      "ome": 684,
      "Æ°á»Ł": 685,
      "pe": 686,
      "tháº¿": 687,
      "Äĳá»ĭnh": 688,
      "this": 689,
      "sinh": 690,
      "ur": 691,
      "wor": 692,
      "theo": 693,
      "á»ĳn": 694,
      "cÆ¡": 695,
      "thá»±c": 696,
      "Æ°á»Łng": 697,
      "sau": 698,
      "Äĳá»ĵng": 699,
      "á»į": 700,
      "iá»ĥn": 701,
      "áº¡nh": 702,
      "iá»ĥu": 703,
      "phá»": 704,
      "hÃ¬nh": 705,
      "trÆ°á»Ŀng": 706,
      "Äĳiá»ģu": 707,
      "from": 708,
      "âĢ¦": 709,
      "má»Ľi": 710,
      "thÃ´ng": 711,
      "Nam": 712,
      "op": 713,
      "id": 714,
      "dá»±": 715,
      "á»ķi": 716,
      "ght": 717,
      "nhá»": 718,
      "ard": 719,
      "ħn": 720,
      "end": 721,
      "áº¡ng": 722,
      "chÃºng": 723,
      "Gi": 724,
      "up": 725,
      "khÃ¡ch": 726,
      "pháº©m": 727,
      "nÄĥng": 728,
      "sp": 729,
      "Viá»ĩt": 730,
      "Äĳang": 731,
      "19": 732,
      "fe": 733,
      "lÆ°á»£ng": 734,
      "Thá»": 735,
      "not": 736,
      "tic": 737,
      "will": 738,
      "der": 739,
      "áº¥u": 740,
      "cáº§n": 741,
      "any": 742,
      "khÃ¡c": 743,
      "um": 744,
      "Kh": 745,
      "ff": 746,
      "qua": 747,
      "Ho": 748,
      "nhÆ°ng": 749,
      "trÃ¬nh": 750,
      "á»Ń": 751,
      "ĩnh": 752,
      "viÃªn": 753,
      "lÃªn": 754,
      "áº£m": 755,
      "lá»Ľ": 756,
      "cháº¥t": 757,
      "ant": 758,
      "cáº¥p": 759,
      "mÃ¡y": 760,
      "ÄĳÃ¢y": 761,
      "áº¯n": 762,
      "phÃ¡t": 763,
      "lÃ½": 764,
      "ame": 765,
      "ÄĲá»": 766,
      "biáº¿t": 767,
      "ally": 768,
      "Ãºp": 769,
      "wn": 770,
      "ack": 771,
      "ould": 772,
      "ell": 773,
      "uyá»ĩn": 774,
      "įng": 775,
      "nÃ³i": 776,
      "nÃło": 777,
      "vá»¥": 778,
      "įn": 779,
      "hÃłnh": 780,
      "tho": 781,
      "nháºŃn": 782,
      "21": 783,
      "xuáº¥t": 784,
      "áºŃy": 785,
      "Äĳiá»ĥm": 786,
      "ear": 787,
      "por": 788,
      "Ã³a": 789,
      "toÃłn": 790,
      "gian": 791,
      "tá»±": 792,
      "Ãºt": 793,
      "ig": 794,
      "Ã³ng": 795,
      "thiáº¿t": 796,
      "trÆ°á»Ľc": 797,
      "Ã¨": 798,
      "loáº¡i": 799,
      "káº¿t": 800,
      "art": 801,
      "máº·t": 802,
      "nghiá»ĩp": 803,
      "hay": 804,
      "king": 805,
      "An": 806,
      "ew": 807,
      "tá»ĳt": 808,
      "vÃ¬": 809,
      "ci": 810,
      "giÃºp": 811,
      "tiáº¿p": 812,
      "báº£o": 813,
      "táº¡o": 814,
      "bo": 815,
      "go": 816,
      "bá»Ļ": 817,
      "sh": 818,
      "Äĳá»ĳi": 819,
      "áº¡ch": 820,
      "Æ°á»Ľng": 821,
      "tháº¥y": 822,
      "táº¿": 823,
      "ite": 824,
      "tÃ¡c": 825,
      "áº¯ng": 826,
      "hiá»ĩu": 827,
      "vá»ĭ": 828,
      "báº±ng": 829,
      "thá»ĭ": 830,
      "tÆ°": 831,
      "gÃ¬": 832,
      "cáº§u": 833,
      "dá»ĭch": 834,
      "if": 835,
      "tÃ¢m": 836,
      "áº£nh": 837,
      "ind": 838,
      "tÃŃnh": 839,
      "ain": 840,
      "á»ĵi": 841,
      "ge": 842,
      "pr": 843,
      "pháº§n": 844,
      "age": 845,
      "«a": 846,
      "chá»§": 847,
      "quáº£": 848,
      "dÃ¢n": 849,
      "12": 850,
      "but": 851,
      "ngo": 852,
      "tÃ¬nh": 853,
      "Ĺi": 854,
      "kinh": 855,
      "tiá»ģn": 856,
      "Å©": 857,
      "hoáº·c": 858,
      "day": 859,
      "nay": 860,
      "há»Ļi": 861,
      "áº¡c": 862,
      "has": 863,
      "ist": 864,
      "thÆ°á»Ŀng": 865,
      "tá»ķ": 866,
      "ná»¯": 867,
      "báº£n": 868,
      "ice": 869,
      "xe": 870,
      "whi": 871,
      "phÃ²ng": 872,
      "ail": 873,
      "nhiÃªn": 874,
      "ks": 875,
      "Æ°u": 876,
      "phÃŃ": 877,
      "chá»įn": 878,
      "ber": 879,
      "ÄĳÆ°á»Ŀng": 880,
      "ıi": 881,
      "dÃ¹ng": 882,
      "lá»Ľn": 883,
      "Äĳo": 884,
      "ĥn": 885,
      "ple": 886,
      "ach": 887,
      "giáº£i": 888,
      "âĢĻ": 889,
      "há»¯": 890,
      "Má»": 891,
      "bá»ĩnh": 892,
      "da": 893,
      "áº¹p": 894,
      "áº©n": 895,
      "thá»©c": 896,
      "more": 897,
      "av": 898,
      "low": 899,
      "tá»Ľi": 900,
      "á»Ļng": 901,
      "my": 902,
      "uyá»ĥn": 903,
      "able": 904,
      "¯a": 905,
      "ep": 906,
      "hai": 907,
      "iá»ħn": 908,
      "very": 909,
      "há»ĵ": 910,
      "ngá»": 911,
      "form": 912,
      "chu": 913,
      "ated": 914,
      "11": 915,
      "mang": 916,
      "giá»Ľi": 917,
      "Vá»": 918,
      "cáº£m": 919,
      "Äĳiá»ĩn": 920,
      "khu": 921,
      "Ã¬m": 922,
      "str": 923,
      "ven": 924,
      "cre": 925,
      "ous": 926,
      "quÃ¡": 927,
      "ast": 928,
      "ble": 929,
      "trá»ĭ": 930,
      "Äĳáº¡i": 931,
      "Ã³c": 932,
      "váº«n": 933,
      "phÃ¡p": 934,
      "£i": 935,
      "they": 936,
      "sá»ĳng": 937,
      "ound": 938,
      "káº¿": 939,
      "tÄĥng": 940,
      "ace": 941,
      "trang": 942,
      "way": 943,
      "ser": 944,
      "váºŃy": 945,
      "yÃªu": 946,
      "ct": 947,
      "des": 948,
      "Æ°ng": 949,
      "khá»": 950,
      "chi": 951,
      "Ã¡m": 952,
      "áº§m": 953,
      "ans": 954,
      "get": 955,
      "chá»©c": 956,
      "their": 957,
      "triá»ĥn": 958,
      "ect": 959,
      "thÃ¡ng": 960,
      "some": 961,
      "ut": 962,
      "áº³": 963,
      "gr": 964,
      "trá»įng": 965,
      "tÃłi": 966,
      "tay": 967,
      "cÃ¡i": 968,
      "ance": 969,
      "ust": 970,
      "dÆ°á»": 971,
      "ough": 972,
      "ore": 973,
      "ies": 974,
      "Ãµ": 975,
      "Äĳáº¹p": 976,
      "bÃłi": 977,
      "Äĳá»ķ": 978,
      "ll": 979,
      "how": 980,
      "sion": 981,
      "doanh": 982,
      "line": 983,
      "muá»ĳn": 984,
      "thá»§": 985,
      "táºŃp": 986,
      "á»©ng": 987,
      "000": 988,
      "«ng": 989,
      "tive": 990,
      "cÃ´": 991,
      "chÆ¡i": 992,
      "uyá»ģn": 993,
      "bao": 994,
      "iá»ĩm": 995,
      "We": 996,
      "now": 997,
      "CÃ´ng": 998,
      "dis": 999,
      "Quá»ĳc": 1000,
      "thÃªm": 1001,
      "biá»ĩt": 1002,
      "ence": 1003,
      "It": 1004,
      "tiÃªu": 1005,
      "its": 1006,
      "off": 1007,
      "liÃªn": 1008,
      "thÆ°Æ¡ng": 1009,
      "tions": 1010,
      "ary": 1011,
      "hÃ³a": 1012,
      "īnh": 1013,
      "á»ģn": 1014,
      "port": 1015,
      "ps": 1016,
      "trá»Ł": 1017,
      "15": 1018,
      "cá»©": 1019,
      "thá»ĳng": 1020,
      "ass": 1021,
      "Tá»": 1022,
      "NG": 1023,
      "Re": 1024,
      "ood": 1025,
      "nghá»": 1026,
      "pre": 1027,
      "time": 1028,
      "about": 1029,
      "hoáº¡t": 1030,
      "bÃªn": 1031,
      "Äĳá»ģu": 1032,
      "30": 1033,
      "láº§n": 1034,
      "tÃ¬m": 1035,
      "22": 1036,
      "nhau": 1037,
      "hoÃłn": 1038,
      "2021": 1039,
      "fi": 1040,
      "nghÄ©": 1041,
      "ful": 1042,
      "lá»±c": 1043,
      "which": 1044,
      "mua": 1045,
      "cuá»Ļc": 1046,
      "ase": 1047,
      "Trung": 1048,
      "bl": 1049,
      "other": 1050,
      "ÄĳÆ¡n": 1051,
      "man": 1052,
      "bÃ¡n": 1053,
      "thing": 1054,
      "new": 1055,
      "sao": 1056,
      "áºŃu": 1057,
      "ding": 1058,
      "phÆ°Æ¡ng": 1059,
      "áº§y": 1060,
      "trÃŃ": 1061,
      "ish": 1062,
      "ck": 1063,
      "áº¡m": 1064,
      "Trong": 1065,
      "áº³ng": 1066,
      "Chá»": 1067,
      "HÃł": 1068,
      "ráº±ng": 1069,
      "liá»ĩu": 1070,
      "200": 1071,
      "iáº¿u": 1072,
      "váº¥n": 1073,
      "ely": 1074,
      "Äĳá»ĭa": 1075,
      "ree": 1076,
      "giao": 1077,
      "who": 1078,
      "Äĳá»ķi": 1079,
      "trung": 1080,
      "dáº«n": 1081,
      "thi": 1082,
      "thÃ¢n": 1083,
      "chá»ĭ": 1084,
      "Ã¬n": 1085,
      "±a": 1086,
      "áº¯m": 1087,
      "tiáº¿ng": 1088,
      "báº¥t": 1089,
      "CÃ¡c": 1090,
      "rá»ĵi": 1091,
      "giá»Ŀ": 1092,
      "iz": 1093,
      "par": 1094,
      "may": 1095,
      "Ã©t": 1096,
      "má»į": 1097,
      "bÃ¡o": 1098,
      "min": 1099,
      "also": 1100,
      "uyáº¿n": 1101,
      "cháº¿": 1102,
      "over": 1103,
      "tham": 1104,
      "tÃŃch": 1105,
      "sÃ¡ng": 1106,
      "á»ĵng": 1107,
      "ÄĳÃ¡nh": 1108,
      "year": 1109,
      "ations": 1110,
      "inter": 1111,
      "act": 1112,
      "quá»ĳc": 1113,
      "xem": 1114,
      "work": 1115,
      "Ã©p": 1116,
      "áº¥m": 1117,
      "tra": 1118,
      "ents": 1119,
      "his": 1120,
      "áº±m": 1121,
      "sá»Ł": 1122,
      "sá»©c": 1123,
      "luÃ´n": 1124,
      "hÃ£": 1125,
      "thá»©": 1126,
      "chuyÃªn": 1127,
      "áº¯p": 1128,
      "náº¿u": 1129,
      "comp": 1130,
      "ngoÃłi": 1131,
      "ÃŃn": 1132,
      "This": 1133,
      "vá»«a": 1134,
      "cá»Ń": 1135,
      "tráº»": 1136,
      "red": 1137,
      "Äĳáº·t": 1138,
      "cÃ¡": 1139,
      "Äĳáº·c": 1140,
      "ban": 1141,
      "á»ĵn": 1142,
      "thÃŃch": 1143,
      "giáº£m": 1144,
      "To": 1145,
      "18": 1146,
      "chuyá»ĥn": 1147,
      "chÆ°a": 1148,
      "cung": 1149,
      "máº¯t": 1150,
      "nhá»ı": 1151,
      "ni": 1152,
      "ook": 1153,
      "má»įi": 1154,
      "vÄĥn": 1155,
      "ak": 1156,
      "âĢľ": 1157,
      "khÃ³": 1158,
      "than": 1159,
      "like": 1160,
      "Anh": 1161,
      "âĢĿ": 1162,
      "ob": 1163,
      "máº¡nh": 1164,
      "lÃºc": 1165,
      "váºŃt": 1166,
      "cl": 1167,
      "Äĳáº¥t": 1168,
      "dá»ħ": 1169,
      "mer": 1170,
      "nam": 1171,
      "ten": 1172,
      "mÃłu": 1173,
      "biáº¿n": 1174,
      "ick": 1175,
      "mar": 1176,
      "báº¯t": 1177,
      "Con": 1178,
      "clu": 1179,
      "ká»³": 1180,
      "No": 1181,
      "af": 1182,
      "web": 1183,
      "there": 1184,
      "xÃ£": 1185,
      "Ã²a": 1186,
      "mi": 1187,
      "nghá»ĩ": 1188,
      "her": 1189,
      "ial": 1190,
      "ren": 1191,
      "ors": 1192,
      "trá»£": 1193,
      "áº«u": 1194,
      "nhanh": 1195,
      "hÆ°á»Ľng": 1196,
      "50": 1197,
      "Łi": 1198,
      "Do": 1199,
      "tuá»ķi": 1200,
      "ngay": 1201,
      "ves": 1202,
      "quyáº¿t": 1203,
      "tiáº¿t": 1204,
      "lá»ĭch": 1205,
      "Náº¿u": 1206,
      "ÄĳÃ¡": 1207,
      "áº·p": 1208,
      "ction": 1209,
      "Wh": 1210,
      "ná»Ļi": 1211,
      "ie": 1212,
      "įc": 1213,
      "la": 1214,
      "when": 1215,
      "ry": 1216,
      "them": 1217,
      "phÃ¢n": 1218,
      "sai": 1219,
      "16": 1220,
      "bÃ¬nh": 1221,
      "cor": 1222,
      "ink": 1223,
      "dá»±ng": 1224,
      "Ã´m": 1225,
      "chiáº¿": 1226,
      "pres": 1227,
      "áº·ng": 1228,
      "nÆ¡i": 1229,
      "tim": 1230,
      "rá»": 1231,
      "You": 1232,
      "need": 1233,
      "col": 1234,
      "hoa": 1235,
      "nghiá»ĩm": 1236,
      "ater": 1237,
      "what": 1238,
      "tá»īnh": 1239,
      "14": 1240,
      "br": 1241,
      "Há»": 1242,
      "been": 1243,
      "tt": 1244,
      "ue": 1245,
      "nhÃ¬n": 1246,
      "Ã£i": 1247,
      "bÃ³ng": 1248,
      "tá»¥c": 1249,
      "vÃ´": 1250,
      "game": 1251,
      "trá»±c": 1252,
      "phá»¥c": 1253,
      "háº¿t": 1254,
      "hel": 1255,
      "khiáº¿n": 1256,
      "phá»¥": 1257,
      "ÃŃt": 1258,
      "gáº§n": 1259,
      "just": 1260,
      "Ná»Ļi": 1261,
      "cess": 1262,
      "24": 1263,
      "od": 1264,
      "tiÃªn": 1265,
      "bá»Łi": 1266,
      "thuáºŃt": 1267,
      "xÃ¢y": 1268,
      "tá»Ń": 1269,
      "bÃłn": 1270,
      "phá»ĳ": 1271,
      "gá»į": 1272,
      "há»Ļ": 1273,
      "ip": 1274,
      "ning": 1275,
      "gÃ¢y": 1276,
      "ÄĳÃ¬nh": 1277,
      "would": 1278,
      "tháºŃt": 1279,
      "thay": 1280,
      "chiáº¿n": 1281,
      "comm": 1282,
      "láºŃp": 1283,
      "sto": 1284,
      "thanh": 1285,
      "tain": 1286,
      "Äĳá»Ļi": 1287,
      "Ãģ": 1288,
      "had": 1289,
      "Äĳáº¡o": 1290,
      "06": 1291,
      "tá»«ng": 1292,
      "log": 1293,
      "13": 1294,
      "lá»£i": 1295,
      "tw": 1296,
      "site": 1297,
      "Tra": 1298,
      "try": 1299,
      "Má»Ļt": 1300,
      "ving": 1301,
      "bá»ı": 1302,
      "máº¹": 1303,
      "ba": 1304,
      "sÃ¡ch": 1305,
      "áº¡y": 1306,
      "tÆ°á»£ng": 1307,
      "chá»©ng": 1308,
      "Má»¹": 1309,
      "ory": 1310,
      "use": 1311,
      "ÄĳÆ°a": 1312,
      "ties": 1313,
      "vá»±c": 1314,
      "ss": 1315,
      "vu": 1316,
      "ok": 1317,
      "Äĳá»§": 1318,
      "lá»Ŀi": 1319,
      "read": 1320,
      "ion": 1321,
      "uyá»ħn": 1322,
      "St": 1323,
      "tinh": 1324,
      "bÃ©": 1325,
      "diá»ĩn": 1326,
      "hiá»ĥu": 1327,
      "ná»¯a": 1328,
      "kiáº¿n": 1329,
      "ca": 1330,
      "fir": 1331,
      "most": 1332,
      "má»Ĺi": 1333,
      "He": 1334,
      "nguyÃªn": 1335,
      "viáº¿t": 1336,
      "view": 1337,
      "bet": 1338,
      "cá»ķ": 1339,
      "vá»ĩ": 1340,
      "were": 1341,
      "sÄ©": 1342,
      "Vi": 1343,
      "áº£y": 1344,
      "cá»Ńa": 1345,
      "truyá»ģn": 1346,
      "Mar": 1347,
      "¡ng": 1348,
      "tre": 1349,
      "táº¥t": 1350,
      "Com": 1351,
      "má»©c": 1352,
      "triá»ĩu": 1353,
      "vis": 1354,
      "TP": 1355,
      "khoáº£ng": 1356,
      "17": 1357,
      "Ãªng": 1358,
      "app": 1359,
      "ople": 1360,
      "Ã¹a": 1361,
      "25": 1362,
      "lÃ²ng": 1363,
      "sáº¯c": 1364,
      "diá»ħn": 1365,
      "CÃ³": 1366,
      "car": 1367,
      "há»¯ng": 1368,
      "ces": 1369,
      "Lo": 1370,
      "uyá»ĩt": 1371,
      "lá»±a": 1372,
      "khai": 1373,
      "2020": 1374,
      "quyá»ģn": 1375,
      "For": 1376,
      "Lá»": 1377,
      "Nhá»¯ng": 1378,
      "US": 1379,
      "Bá»Ļ": 1380,
      "coun": 1381,
      "Nguyá»ħn": 1382,
      "into": 1383,
      "Æ°á»£t": 1384,
      "Báº¡n": 1385,
      "dÆ°á»Ľi": 1386,
      "tiáº¿n": 1387,
      "ure": 1388,
      "Tuy": 1389,
      "Sau": 1390,
      "Ä©nh": 1391,
      "nháºŃp": 1392,
      "gre": 1393,
      "phong": 1394,
      "cau": 1395,
      "tÃªn": 1396,
      "back": 1397,
      "cal": 1398,
      "ná»": 1399,
      "ved": 1400,
      "fin": 1401,
      "KhÃ´ng": 1402,
      "á»ĵm": 1403,
      "ud": 1404,
      "Co": 1405,
      "cáº£nh": 1406,
      "cam": 1407,
      "play": 1408,
      "dÃłi": 1409,
      "tÆ°Æ¡ng": 1410,
      "lar": 1411,
      "thuá»Ļc": 1412,
      "well": 1413,
      "sÃ¡t": 1414,
      "chá»ĳng": 1415,
      "ates": 1416,
      "há»Ĺ": 1417,
      "Äĳáº¥u": 1418,
      "kiá»ĩn": 1419,
      "Vá»Ľi": 1420,
      "tá»·": 1421,
      "chuáº©n": 1422,
      "á»įc": 1423,
      "giá»¯a": 1424,
      "Ã¡u": 1425,
      "Ã³n": 1426,
      "bi": 1427,
      "int": 1428,
      "ná»ķi": 1429,
      "©a": 1430,
      "gá»ĵm": 1431,
      "má»¥c": 1432,
      "há»¯u": 1433,
      "ade": 1434,
      "uá»ĵn": 1435,
      "Äĳa": 1436,
      "Äĳáº£m": 1437,
      "NH": 1438,
      "09": 1439,
      "make": 1440,
      "giÃ¡o": 1441,
      "khÃŃ": 1442,
      "xÃ¡c": 1443,
      "Le": 1444,
      "people": 1445,
      "ical": 1446,
      "BÃ¬nh": 1447,
      "gen": 1448,
      "cá»©u": 1449,
      "Khi": 1450,
      "chuyá»ĩn": 1451,
      "háº¡n": 1452,
      "tur": 1453,
      "áº¿p": 1454,
      "chiáº¿c": 1455,
      "tÃŃn": 1456,
      "fore": 1457,
      "pp": 1458,
      "chia": 1459,
      "cer": 1460,
      "chÃ¢n": 1461,
      "sy": 1462,
      "produ": 1463,
      "há»ıi": 1464,
      "Po": 1465,
      "mon": 1466,
      "cur": 1467,
      "cÃ¢u": 1468,
      "kháº£": 1469,
      "ds": 1470,
      "cÃ¢y": 1471,
      "ments": 1472,
      "iáº¿m": 1473,
      "ign": 1474,
      "med": 1475,
      "don": 1476,
      "ĵng": 1477,
      "yáº¿u": 1478,
      "rough": 1479,
      "Dá»": 1480,
      "ÃĶ": 1481,
      "chung": 1482,
      "chÃŃ": 1483,
      "val": 1484,
      "23": 1485,
      "Li": 1486,
      "TH": 1487,
      "má»Ł": 1488,
      "Theo": 1489,
      "ÄĳÃºng": 1490,
      "Äĳáº§y": 1491,
      "quáº£n": 1492,
      "Äĳá»Ŀi": 1493,
      "New": 1494,
      "Pro": 1495,
      "cá»±c": 1496,
      "nhu": 1497,
      "ms": 1498,
      "gÃ³": 1499,
      "minh": 1500,
      "ru": 1501,
      "tri": 1502,
      "gáº·p": 1503,
      "only": 1504,
      "cÃłng": 1505,
      "know": 1506,
      "air": 1507,
      "les": 1508,
      "kiá»ĥm": 1509,
      "phÃ¹": 1510,
      "lÃ£": 1511,
      "ement": 1512,
      "high": 1513,
      "If": 1514,
      "enti": 1515,
      "ká»¹": 1516,
      "net": 1517,
      "tá»ĳi": 1518,
      "book": 1519,
      "inclu": 1520,
      "gá»įi": 1521,
      "VÄĥn": 1522,
      "So": 1523,
      "thuá»ĳc": 1524,
      "uyáº¿t": 1525,
      "gra": 1526,
      "vide": 1527,
      "see": 1528,
      "And": 1529,
      "máº«u": 1530,
      "gá»": 1531,
      "help": 1532,
      "gn": 1533,
      "cáº¡nh": 1534,
      "máº¥t": 1535,
      "lÆ°u": 1536,
      "Al": 1537,
      "2019": 1538,
      "pos": 1539,
      "dung": 1540,
      "nghÄ©a": 1541,
      "Ngo": 1542,
      "100": 1543,
      "first": 1544,
      "2018": 1545,
      "rÃµ": 1546,
      "uá»ĳng": 1547,
      "top": 1548,
      "kÃ½": 1549,
      "als": 1550,
      "Ãłu": 1551,
      "cy": 1552,
      "old": 1553,
      "ÄĲáº¡i": 1554,
      "ted": 1555,
      "ture": 1556,
      "hÆ°á»Łng": 1557,
      "nhiá»ĩm": 1558,
      "through": 1559,
      "Tá»ķ": 1560,
      "Minh": 1561,
      "serv": 1562,
      "under": 1563,
      "wer": 1564,
      "every": 1565,
      "cÄĥn": 1566,
      "gan": 1567,
      "Ã¢ng": 1568,
      "tráºŃn": 1569,
      "Äĳáº¡t": 1570,
      "NhÃł": 1571,
      "Ãłm": 1572,
      "down": 1573,
      "bÃł": 1574,
      "iness": 1575,
      "sang": 1576,
      "áºŃm": 1577,
      "máº¡ng": 1578,
      "tal": 1579,
      "Æ°Æ¡i": 1580,
      "quÃ½": 1581,
      "ild": 1582,
      "á»Ńa": 1583,
      "uc": 1584,
      "giá»¯": 1585,
      "come": 1586,
      "said": 1587,
      "diff": 1588,
      "láº¥y": 1589,
      "sur": 1590,
      "online": 1591,
      "ati": 1592,
      "ND": 1593,
      "row": 1594,
      "ices": 1595,
      "aw": 1596,
      "hÃ£y": 1597,
      "sti": 1598,
      "Ar": 1599,
      "where": 1600,
      "land": 1601,
      "Ro": 1602,
      "rá»Ļng": 1603,
      "cá»¥": 1604,
      "cÃ¡o": 1605,
      "sing": 1606,
      "these": 1607,
      "peri": 1608,
      "ÄĳÄĥng": 1609,
      "ced": 1610,
      "ıe": 1611,
      "trÃ²": 1612,
      "tranh": 1613,
      "dáº¡ng": 1614,
      "thÆ°": 1615,
      "váºŃn": 1616,
      "danh": 1617,
      "nguá»ĵn": 1618,
      "giáº£": 1619,
      "áº©u": 1620,
      "Cá»": 1621,
      "tiá»ĩn": 1622,
      "On": 1623,
      "kÃ©": 1624,
      "Ã³m": 1625,
      "gu": 1626,
      "many": 1627,
      "nghi": 1628,
      "khÃ¡": 1629,
      "tráº£": 1630,
      "dÃ¹": 1631,
      "ari": 1632,
      "TÃ´i": 1633,
      "pers": 1634,
      "NgÆ°á»Ŀi": 1635,
      "cent": 1636,
      "sho": 1637,
      "thoáº¡i": 1638,
      "Äĳá»Ļc": 1639,
      "biá»ĥu": 1640,
      "Se": 1641,
      "ise": 1642,
      "bus": 1643,
      "fun": 1644,
      "khá»ıe": 1645,
      "then": 1646,
      "ngÃłnh": 1647,
      "ÄĲÃ¢y": 1648,
      "good": 1649,
      "ww": 1650,
      "tÆ°á»Łng": 1651,
      "vers": 1652,
      "tá»ķng": 1653,
      "trÆ°á»Łng": 1654,
      "bá»ĳ": 1655,
      "dÆ°á»¡ng": 1656,
      "ember": 1657,
      "say": 1658,
      "pu": 1659,
      "xuá»ĳng": 1660,
      "CM": 1661,
      "Thanh": 1662,
      "ily": 1663,
      "tháº§n": 1664,
      "As": 1665,
      "nu": 1666,
      "spec": 1667,
      "Ã¨o": 1668,
      "ef": 1669,
      "cri": 1670,
      "ChÃŃnh": 1671,
      "ton": 1672,
      "vui": 1673,
      "cause": 1674,
      "ens": 1675,
      "ded": 1676,
      "vÃ¹ng": 1677,
      "ide": 1678,
      "after": 1679,
      "ext": 1680,
      "phÃŃa": 1681,
      "lá»ĩ": 1682,
      "áºµ": 1683,
      "less": 1684,
      "ÄĳoÃłn": 1685,
      "CH": 1686,
      "tráº¡ng": 1687,
      "riÃªng": 1688,
      "ÄĳÃ¡ng": 1689,
      "two": 1690,
      "ort": 1691,
      "ating": 1692,
      "áº¡p": 1693,
      "cá»ĳ": 1694,
      "ThÃłnh": 1695,
      "requ": 1696,
      "2017": 1697,
      "phim": 1698,
      "tá»©c": 1699,
      "bay": 1700,
      "chÃº": 1701,
      "want": 1702,
      "alth": 1703,
      "could": 1704,
      "part": 1705,
      "cháº¯c": 1706,
      "set": 1707,
      "she": 1708,
      "long": 1709,
      "stem": 1710,
      "ire": 1711,
      "stand": 1712,
      "cas": 1713,
      "cuá»ĳi": 1714,
      "iá»ĩp": 1715,
      "atch": 1716,
      "nghe": 1717,
      "tuyáº¿n": 1718,
      "ev": 1719,
      "right": 1720,
      "88": 1721,
      "NhÆ°ng": 1722,
      "áº©y": 1723,
      "del": 1724,
      "ket": 1725,
      "sm": 1726,
      "lÃ¢u": 1727,
      "Thu": 1728,
      "nhÃ©": 1729,
      "sure": 1730,
      "should": 1731,
      "dÃ²ng": 1732,
      "xá»Ń": 1733,
      "even": 1734,
      "mÃ´i": 1735,
      "era": 1736,
      "os": 1737,
      "bas": 1738,
      "Ban": 1739,
      "tle": 1740,
      "toÃ¡n": 1741,
      "ĳng": 1742,
      "vn": 1743,
      "vÃłng": 1744,
      "lear": 1745,
      "elf": 1746,
      "khoa": 1747,
      "htt": 1748,
      "tá»ĳ": 1749,
      "Ãºi": 1750,
      "years": 1751,
      "chá»ĭu": 1752,
      "ÄĳÃ¢u": 1753,
      "own": 1754,
      "Be": 1755,
      "ÄĲá»ĥ": 1756,
      "40": 1757,
      "ft": 1758,
      "cial": 1759,
      "ational": 1760,
      "chÆ°Æ¡ng": 1761,
      "velo": 1762,
      "CO": 1763,
      "khoáº£n": 1764,
      "ner": 1765,
      "ÄĲá»©c": 1766,
      "best": 1767,
      "Tu": 1768,
      "lá»Ľp": 1769,
      "NgoÃłi": 1770,
      "26": 1771,
      "pri": 1772,
      "ited": 1773,
      "ká»ĥ": 1774,
      "bÆ°á»Ľc": 1775,
      "mÃ³n": 1776,
      "Ká»": 1777,
      "28": 1778,
      "á»Łi": 1779,
      "dÃłnh": 1780,
      "dá»¥c": 1781,
      "Ex": 1782,
      "exp": 1783,
      "viá»ĩn": 1784,
      "sub": 1785,
      "ÃĤ": 1786,
      "vel": 1787,
      "side": 1788,
      "Chi": 1789,
      "ring": 1790,
      "2022": 1791,
      "xa": 1792,
      "ason": 1793,
      "chang": 1794,
      "luáºŃn": 1795,
      "luáºŃt": 1796,
      "Äĳoáº¡n": 1797,
      "áº¢": 1798,
      "ris": 1799,
      "quÃ¢n": 1800,
      "ele": 1801,
      "reg": 1802,
      "sáº»": 1803,
      "ility": 1804,
      "Wor": 1805,
      "nÃ¢ng": 1806,
      "show": 1807,
      "CÃ¡ch": 1808,
      "tháº¥t": 1809,
      "Ã¹i": 1810,
      "giá»ĳng": 1811,
      "ys": 1812,
      "find": 1813,
      "mp": 1814,
      "arch": 1815,
      "Sá»": 1816,
      "Tá»«": 1817,
      "xin": 1818,
      "Æ°á»Ľi": 1819,
      "tuyá»ĩt": 1820,
      "vo": 1821,
      "iÃªu": 1822,
      "VÃ¬": 1823,
      "fer": 1824,
      "ÄĲiá»ģu": 1825,
      "VI": 1826,
      "Un": 1827,
      "Bá»": 1828,
      "take": 1829,
      "táº£i": 1830,
      "Pl": 1831,
      "thiá»ĩn": 1832,
      "Mo": 1833,
      "tháº¯ng": 1834,
      "kiáº¿m": 1835,
      "hÃ´m": 1836,
      "Há»Ļi": 1837,
      "let": 1838,
      "NháºŃt": 1839,
      "cont": 1840,
      "formation": 1841,
      "biá»ĥn": 1842,
      "01": 1843,
      "Lu": 1844,
      "mÃ£": 1845,
      "27": 1846,
      "such": 1847,
      "ran": 1848,
      "home": 1849,
      "2016": 1850,
      "used": 1851,
      "ines": 1852,
      "08": 1853,
      "differ": 1854,
      "vÃ²ng": 1855,
      "because": 1856,
      "hoáº¡ch": 1857,
      "hip": 1858,
      "ino": 1859,
      "lot": 1860,
      "person": 1861,
      "ÄĳÃ´i": 1862,
      "led": 1863,
      "Ma": 1864,
      "much": 1865,
      "kÃŃch": 1866,
      "men": 1867,
      "gÃ¡i": 1868,
      "há»ĵi": 1869,
      "Trang": 1870,
      "dy": 1871,
      "ÄĲá»ĵng": 1872,
      "jo": 1873,
      "§y": 1874,
      "gram": 1875,
      "dÃłng": 1876,
      "á»Ńi": 1877,
      "kháº©u": 1878,
      "âĢĶ": 1879,
      "Ad": 1880,
      "him": 1881,
      "Chá»§": 1882,
      "suáº¥t": 1883,
      "sup": 1884,
      "great": 1885,
      "ĭp": 1886,
      "fol": 1887,
      "Äĳau": 1888,
      "phá»§": 1889,
      "giáº£n": 1890,
      "phÃ©p": 1891,
      "ave": 1892,
      "nháº±m": 1893,
      "nghá»ĭ": 1894,
      "trÃ¡i": 1895,
      "fac": 1896,
      "ek": 1897,
      "MÃ¡y": 1898,
      "mil": 1899,
      "sÃ¢n": 1900,
      "Thá»ĭ": 1901,
      "xanh": 1902,
      "stud": 1903,
      "05": 1904,
      "sk": 1905,
      "mÃ¹a": 1906,
      "mis": 1907,
      "ouse": 1908,
      "main": 1909,
      "business": 1910,
      "pon": 1911,
      "Par": 1912,
      "Long": 1913,
      "ná»ģn": 1914,
      "sol": 1915,
      "ÄĲÃ´ng": 1916,
      "ward": 1917,
      "cáºŃp": 1918,
      "thÆ¡": 1919,
      "nhiá»ĩt": 1920,
      "hÃ²a": 1921,
      "did": 1922,
      "ways": 1923,
      "ÄĳÃ´ng": 1924,
      "29": 1925,
      "07": 1926,
      "váº»": 1927,
      "Há»ĵ": 1928,
      "huyá»ĩn": 1929,
      "VN": 1930,
      "Su": 1931,
      "iá»ģm": 1932,
      "bá»ķ": 1933,
      "hÃºt": 1934,
      "thiáº¿u": 1935,
      "Ã¨n": 1936,
      "ata": 1937,
      "Jo": 1938,
      "AM": 1939,
      "phÃºt": 1940,
      "mÃ´": 1941,
      "sul": 1942,
      "Man": 1943,
      "HCM": 1944,
      "care": 1945,
      "ua": 1946,
      "ģm": 1947,
      "iá»ħ": 1948,
      "Tá»ķng": 1949,
      "bÃ¡c": 1950,
      "tern": 1951,
      "being": 1952,
      "03": 1953,
      "room": 1954,
      "velop": 1955,
      "cÆ°": 1956,
      "load": 1957,
      "rus": 1958,
      "vá»įng": 1959,
      "website": 1960,
      "ality": 1961,
      "háº¯n": 1962,
      "vá»ĳn": 1963,
      "made": 1964,
      "Báº¯c": 1965,
      "Äĳá»įc": 1966,
      "náº±m": 1967,
      "Hoa": 1968,
      "ngá»§": 1969,
      "ÄĳÃ¡p": 1970,
      "ath": 1971,
      "tráº¯ng": 1972,
      "GiÃ¡": 1973,
      "system": 1974,
      "life": 1975,
      "pháº¡m": 1976,
      "NgÃły": 1977,
      "vid": 1978,
      "thÆ°á»Łng": 1979,
      "Au": 1980,
      "ghi": 1981,
      "nháºŃt": 1982,
      "eff": 1983,
      "gÃ³p": 1984,
      "tuáº§n": 1985,
      "plan": 1986,
      "ÄĳÃ³ng": 1987,
      "phÃ¡": 1988,
      "chool": 1989,
      "Bo": 1990,
      "clo": 1991,
      "60": 1992,
      "cá»Ļng": 1993,
      "here": 1994,
      "giÃ¡c": 1995,
      "free": 1996,
      "Ã£y": 1997,
      "nhá»Ľ": 1998,
      "dáº§u": 1999,
      "ChÃºng": 2000,
      "tech": 2001,
      "ÄĳÃłn": 2002,
      "sÆ¡": 2003,
      "xÃ©t": 2004,
      "dition": 2005,
      "khá»ıi": 2006,
      "ters": 2007,
      "world": 2008,
      "cháº¡y": 2009,
      "Sh": 2010,
      "khÄĥn": 2011,
      "Æ¯": 2012,
      "There": 2013,
      "ash": 2014,
      "fam": 2015,
      "ngoáº¡i": 2016,
      "ÃĢ": 2017,
      "vÃłi": 2018,
      "DÆ°Æ¡ng": 2019,
      "cap": 2020,
      "sáº¡ch": 2021,
      "áº§ng": 2022,
      "does": 2023,
      "eng": 2024,
      "call": 2025,
      "pt": 2026,
      "Wi": 2027,
      "hand": 2028,
      "design": 2029,
      "win": 2030,
      "HoÃłng": 2031,
      "ian": 2032,
      "nÃłng": 2033,
      "sign": 2034,
      "gá»Ńi": 2035,
      "eas": 2036,
      "experi": 2037,
      "son": 2038,
      "VÃł": 2039,
      "kes": 2040,
      "mong": 2041,
      "inv": 2042,
      "Cho": 2043,
      "Äĳá»©ng": 2044,
      "Háº£i": 2045,
      "Em": 2046,
      "má»ģm": 2047,
      "uni": 2048,
      "place": 2049,
      "pol": 2050,
      "But": 2051,
      "Cam": 2052,
      "fo": 2053,
      "nháº¹": 2054,
      "De": 2055,
      "ific": 2056,
      "cÃ¢n": 2057,
      "lao": 2058,
      "nhÃ³m": 2059,
      "again": 2060,
      "look": 2061,
      "chá»¯a": 2062,
      "trá»Ŀi": 2063,
      "04": 2064,
      "sÃ¢u": 2065,
      "ÄĲá»ĭ": 2066,
      "mÃ´n": 2067,
      "search": 2068,
      "chiá»ģu": 2069,
      "post": 2070,
      "num": 2071,
      "Táº¡i": 2072,
      "láº¡nh": 2073,
      "báº¡c": 2074,
      "Ac": 2075,
      "sen": 2076,
      "tro": 2077,
      "cháº¿t": 2078,
      "before": 2079,
      "Ãºa": 2080,
      "contr": 2081,
      "char": 2082,
      "phá»ĳi": 2083,
      "run": 2084,
      "TÃ¢y": 2085,
      "ina": 2086,
      "those": 2087,
      "ThÃ¡i": 2088,
      "miá»ħn": 2089,
      "ings": 2090,
      "each": 2091,
      "ale": 2092,
      "information": 2093,
      "ress": 2094,
      "van": 2095,
      "nÃ³ng": 2096,
      "chÃºt": 2097,
      "tráº£i": 2098,
      "Sp": 2099,
      "cáº£i": 2100,
      "chÃ³ng": 2101,
      "nguy": 2102,
      "trÃ¡nh": 2103,
      "2015": 2104,
      "Cl": 2105,
      "az": 2106,
      "Can": 2107,
      "chÄĥm": 2108,
      "ject": 2109,
      "Du": 2110,
      "nghá»ī": 2111,
      "háº¥p": 2112,
      "mÃ¡i": 2113,
      "02": 2114,
      "det": 2115,
      "ÃĶng": 2116,
      "sung": 2117,
      "while": 2118,
      "ThÃ´ng": 2119,
      "ER": 2120,
      "ative": 2121,
      "nghiÃªn": 2122,
      "ĵn": 2123,
      "SÆ¡n": 2124,
      "ight": 2125,
      "ngÃ¢n": 2126,
      "ages": 2127,
      "prof": 2128,
      "AN": 2129,
      "oc": 2130,
      "lit": 2131,
      "ráº»": 2132,
      "vay": 2133,
      "team": 2134,
      "nghiá»ģn": 2135,
      "chá»īnh": 2136,
      "Di": 2137,
      "too": 2138,
      "háºŃu": 2139,
      "TT": 2140,
      "Col": 2141,
      "oup": 2142,
      "ıng": 2143,
      "ron": 2144,
      "gy": 2145,
      "cháº³ng": 2146,
      "Báº£n": 2147,
      "tel": 2148,
      "chá»ĵng": 2149,
      "che": 2150,
      "TrÆ°á»Ŀng": 2151,
      "comple": 2152,
      "Xu": 2153,
      "plic": 2154,
      "really": 2155,
      "start": 2156,
      "sive": 2157,
      "tiv": 2158,
      "Ã³i": 2159,
      "¥ng": 2160,
      "LiÃªn": 2161,
      "pháº£n": 2162,
      "develop": 2163,
      "Ser": 2164,
      "á»Ļn": 2165,
      "ness": 2166,
      "lead": 2167,
      "thuáºŃn": 2168,
      "ıa": 2169,
      "máº¯c": 2170,
      "think": 2171,
      "duy": 2172,
      "má»¹": 2173,
      "thÃ¡i": 2174,
      "khÃ¡m": 2175,
      "ko": 2176,
      "xuyÃªn": 2177,
      "TR": 2178,
      "eck": 2179,
      "IN": 2180,
      "cour": 2181,
      "Äĳáº£o": 2182,
      "fl": 2183,
      "hy": 2184,
      "hu": 2185,
      "sá»Ńa": 2186,
      "táº§ng": 2187,
      "ince": 2188,
      "mÃ¡u": 2189,
      "giáº¥y": 2190,
      "My": 2191,
      "ÄĳÃ´": 2192,
      "tháº¥p": 2193,
      "att": 2194,
      "kháº£o": 2195,
      "tai": 2196,
      "vá»£": 2197,
      "Ã£n": 2198,
      "ná»ĳi": 2199,
      "AT": 2200,
      "xi": 2201,
      "Äĳá»ı": 2202,
      "Thá»©": 2203,
      "mÃłn": 2204,
      "Xem": 2205,
      "sof": 2206,
      "kÃ©o": 2207,
      "45": 2208,
      "gin": 2209,
      "Mi": 2210,
      "Hu": 2211,
      "iá»ħm": 2212,
      "They": 2213,
      "tuyá»ĥn": 2214,
      "ween": 2215,
      "logy": 2216,
      "ThiÃªn": 2217,
      "HÃłn": 2218,
      "cÆ°á»Ŀi": 2219,
      "Â»": 2220,
      "wr": 2221,
      "different": 2222,
      "cháº¯n": 2223,
      "emp": 2224,
      "process": 2225,
      "ze": 2226,
      "siÃªu": 2227,
      "khÃ³a": 2228,
      "fri": 2229,
      "thiÃªn": 2230,
      "pur": 2231,
      "tÃ³c": 2232,
      "hÃ£ng": 2233,
      "99": 2234,
      "kia": 2235,
      "unity": 2236,
      "inst": 2237,
      "pay": 2238,
      "vai": 2239,
      "hÆ¡i": 2240,
      "rel": 2241,
      "around": 2242,
      "Ã¹y": 2243,
      "Res": 2244,
      "going": 2245,
      "táºŃn": 2246,
      "lá»ħ": 2247,
      "tá»ĭch": 2248,
      "nháº¡c": 2249,
      "quay": 2250,
      "35": 2251,
      "xÃºc": 2252,
      "gg": 2253,
      "thá»Ń": 2254,
      "bÃ¡nh": 2255,
      "Giá»": 2256,
      "SE": 2257,
      "Äĳem": 2258,
      "loo": 2259,
      "máºŃt": 2260,
      "cle": 2261,
      "turn": 2262,
      "Pre": 2263,
      "provi": 2264,
      "light": 2265,
      "Hiá»ĩn": 2266,
      "ÄĳÃło": 2267,
      "cha": 2268,
      "Lan": 2269,
      "loc": 2270,
      "Gr": 2271,
      "kÃŃnh": 2272,
      "using": 2273,
      "Is": 2274,
      "phiÃªn": 2275,
      "follow": 2276,
      "video": 2277,
      "hiá»ĥm": 2278,
      "bre": 2279,
      "cover": 2280,
      "Cu": 2281,
      "Pr": 2282,
      "máº¡i": 2283,
      "blic": 2284,
      "chá»Ĺ": 2285,
      "áº·n": 2286,
      "last": 2287,
      "ÄĳÃªm": 2288,
      "thÃ´i": 2289,
      "miá»ģn": 2290,
      "Ľm": 2291,
      "lÄ©nh": 2292,
      "nghá»ģ": 2293,
      "custo": 2294,
      "program": 2295,
      "Tráº§n": 2296,
      "xáº£y": 2297,
      "sit": 2298,
      "dÃ¢y": 2299,
      "En": 2300,
      "cli": 2301,
      "sÆ°": 2302,
      "thÃº": 2303,
      "2014": 2304,
      "rect": 2305,
      "igh": 2306,
      "háº¡i": 2307,
      "kÃª": 2308,
      "lÃ£nh": 2309,
      "Tháº¿": 2310,
      "vÆ°á»£t": 2311,
      "Ngh": 2312,
      "head": 2313,
      "trÃ¡ch": 2314,
      "BÃłi": 2315,
      "thao": 2316,
      "Tin": 2317,
      "quanh": 2318,
      "36": 2319,
      "quen": 2320,
      "Chá»ī": 2321,
      "order": 2322,
      "ession": 2323,
      "xo": 2324,
      "gam": 2325,
      "ques": 2326,
      "What": 2327,
      "ga": 2328,
      "ures": 2329,
      "put": 2330,
      "rent": 2331,
      "dáº¥u": 2332,
      "non": 2333,
      "que": 2334,
      "gener": 2335,
      "still": 2336,
      "bal": 2337,
      "same": 2338,
      "cháº¥p": 2339,
      "real": 2340,
      "thuÃª": 2341,
      "huy": 2342,
      "trai": 2343,
      "áºµn": 2344,
      "máº·c": 2345,
      "cÆ°á»Ŀng": 2346,
      "Home": 2347,
      "II": 2348,
      "háº¡": 2349,
      "tric": 2350,
      "xá»": 2351,
      "Te": 2352,
      "dri": 2353,
      "Me": 2354,
      "lÃ¡": 2355,
      "sá»¯a": 2356,
      "sed": 2357,
      "ngon": 2358,
      "Äĳáº©y": 2359,
      "kiá»ĥu": 2360,
      "RE": 2361,
      "ety": 2362,
      "offer": 2363,
      "80": 2364,
      "2013": 2365,
      "ese": 2366,
      "ask": 2367,
      "ngÃ´i": 2368,
      "mm": 2369,
      "child": 2370,
      "HÃ£y": 2371,
      "feel": 2372,
      "ChÃ¢u": 2373,
      "list": 2374,
      "rac": 2375,
      "Car": 2376,
      "sÃ³c": 2377,
      "month": 2378,
      "tá»ĳc": 2379,
      "báºŃt": 2380,
      "PhÃ¡p": 2381,
      "import": 2382,
      "add": 2383,
      "buá»ķi": 2384,
      "dec": 2385,
      "sible": 2386,
      "both": 2387,
      "UB": 2388,
      "Trá»": 2389,
      "NguyÃªn": 2390,
      "phá»ķ": 2391,
      "tÆ°á»Ľng": 2392,
      "Ãµi": 2393,
      "Ã¨m": 2394,
      "thá»§y": 2395,
      "between": 2396,
      "Thá»§": 2397,
      "sá»Ľm": 2398,
      "PhÃº": 2399,
      "arm": 2400,
      "company": 2401,
      "á»ķn": 2402,
      "tiá»ĥu": 2403,
      "trans": 2404,
      "ger": 2405,
      "linh": 2406,
      "Post": 2407,
      "kháº¯c": 2408,
      "ws": 2409,
      "ÄĲÃł": 2410,
      "hÆ°Æ¡ng": 2411,
      "oney": 2412,
      "bel": 2413,
      "Viet": 2414,
      "ects": 2415,
      "lan": 2416,
      "point": 2417,
      "gá»Ĺ": 2418,
      "ends": 2419,
      "nÃ´ng": 2420,
      "colle": 2421,
      "When": 2422,
      "All": 2423,
      "ax": 2424,
      "tháº©m": 2425,
      "luyá»ĩn": 2426,
      "self": 2427,
      "chá»¯": 2428,
      "May": 2429,
      "phone": 2430,
      "lá»Ļ": 2431,
      "náº·ng": 2432,
      "aff": 2433,
      "loy": 2434,
      "§ng": 2435,
      "trÃ¬": 2436,
      "Viá»ĩc": 2437,
      "suy": 2438,
      "nhá»Ŀ": 2439,
      "data": 2440,
      "chá»©a": 2441,
      "vari": 2442,
      "found": 2443,
      "rÄĥng": 2444,
      "acebook": 2445,
      "ought": 2446,
      "lá»Ĺi": 2447,
      "avail": 2448,
      "tÃ´": 2449,
      "keep": 2450,
      "health": 2451,
      "thai": 2452,
      "Kinh": 2453,
      "market": 2454,
      "enter": 2455,
      "USD": 2456,
      "quáºŃn": 2457,
      "ki": 2458,
      "nhiá»ħm": 2459,
      "incre": 2460,
      "BÃªn": 2461,
      "á»ŀ": 2462,
      "table": 2463,
      "iáº¿p": 2464,
      "LÃª": 2465,
      "ature": 2466,
      "week": 2467,
      "ST": 2468,
      "tical": 2469,
      "fil": 2470,
      "ngá»ĵi": 2471,
      "posi": 2472,
      "organ": 2473,
      "cÆ°á»£c": 2474,
      "bit": 2475,
      "water": 2476,
      "quáº§n": 2477,
      "500": 2478,
      "appro": 2479,
      "Ìģ": 2480,
      "ics": 2481,
      "khá»Łi": 2482,
      "amin": 2483,
      "ãĢ": 2484,
      "respon": 2485,
      "Ã£o": 2486,
      "sáºµn": 2487,
      "wever": 2488,
      "Quáº£ng": 2489,
      "yÃªn": 2490,
      "happ": 2491,
      "2012": 2492,
      "cáºŃu": 2493,
      "sa": 2494,
      "open": 2495,
      "With": 2496,
      "199": 2497,
      "power": 2498,
      "ili": 2499,
      "TV": 2500,
      "chÃ¢u": 2501,
      "nuÃ´i": 2502,
      "ON": 2503,
      "áº¤": 2504,
      "love": 2505,
      "allow": 2506,
      "na": 2507,
      "ali": 2508,
      "Uni": 2509,
      "âĢ¢": 2510,
      "few": 2511,
      "star": 2512,
      "service": 2513,
      "AR": 2514,
      "times": 2515,
      "PhÃ²ng": 2516,
      "Ba": 2517,
      "31": 2518,
      "fu": 2519,
      "ChÃŃ": 2520,
      "ross": 2521,
      "giai": 2522,
      "khÃ´": 2523,
      "experience": 2524,
      "resul": 2525,
      "táº¥n": 2526,
      "things": 2527,
      "ká»·": 2528,
      "bar": 2529,
      "mit": 2530,
      "áº¢nh": 2531,
      "school": 2532,
      "present": 2533,
      "leg": 2534,
      "NÄĥm": 2535,
      "tÆ°Æ¡i": 2536,
      "support": 2537,
      "meric": 2538,
      "rang": 2539,
      "báº£ng": 2540,
      "cáº¥u": 2541,
      "cen": 2542,
      "ging": 2543,
      "City": 2544,
      "quÃ¡n": 2545,
      "www": 2546,
      "PhÆ°Æ¡ng": 2547,
      "Kim": 2548,
      "táº·ng": 2549,
      "stru": 2550,
      "sider": 2551,
      "láº½": 2552,
      "Inter": 2553,
      "ThÃ¡ng": 2554,
      "gle": 2555,
      "https": 2556,
      "ici": 2557,
      "camera": 2558,
      "level": 2559,
      "liá»ģn": 2560,
      "thÃºc": 2561,
      "dep": 2562,
      "Báº£o": 2563,
      "TÃ¢n": 2564,
      "produc": 2565,
      "ord": 2566,
      "pho": 2567,
      "báº¿p": 2568,
      "buil": 2569,
      "Å©i": 2570,
      "ular": 2571,
      "Ngá»įc": 2572,
      "Americ": 2573,
      "kim": 2574,
      "bers": 2575,
      "issu": 2576,
      "ngÄĥn": 2577,
      "táº§m": 2578,
      "Äĳen": 2579,
      "won": 2580,
      "TrÆ°á»Ľc": 2581,
      "ustr": 2582,
      "atur": 2583,
      "mem": 2584,
      "mul": 2585,
      "viÃªm": 2586,
      "Thá»Ŀi": 2587,
      "tháº£o": 2588,
      "fact": 2589,
      "niá»ĩm": 2590,
      "xáº¿p": 2591,
      "máº¥y": 2592,
      "thiá»ĩu": 2593,
      "Ri": 2594,
      "sid": 2595,
      "during": 2596,
      "three": 2597,
      "cáº¯t": 2598,
      "available": 2599,
      "better": 2600,
      "small": 2601,
      "70": 2602,
      "Ap": 2603,
      "láº¡c": 2604,
      "ons": 2605,
      "tes": 2606,
      "cou": 2607,
      "dáº¡y": 2608,
      "including": 2609,
      "ngá»Ŀ": 2610,
      "bro": 2611,
      "Phá»": 2612,
      "tan": 2613,
      "rid": 2614,
      "Ká»³": 2615,
      "full": 2616,
      "contin": 2617,
      "cost": 2618,
      "ator": 2619,
      "cond": 2620,
      "iáº¿ng": 2621,
      "aren": 2622,
      "sá»£": 2623,
      "ized": 2624,
      "Hai": 2625,
      "tics": 2626,
      "big": 2627,
      "giÃ¡m": 2628,
      "soÃ¡t": 2629,
      "láº¯p": 2630,
      "fic": 2631,
      "thá»ĭt": 2632,
      "ngá»¯": 2633,
      "ÄĲá»ĳi": 2634,
      "number": 2635,
      "based": 2636,
      "amp": 2637,
      "rece": 2638,
      "áº¹n": 2639,
      "always": 2640,
      "without": 2641,
      "days": 2642,
      "little": 2643,
      "dra": 2644,
      "ÄĲáº·c": 2645,
      "ener": 2646,
      "AC": 2647,
      "©t": 2648,
      "Fe": 2649,
      "cÅ©": 2650,
      "body": 2651,
      "cul": 2652,
      "ished": 2653,
      "Giang": 2654,
      "ability": 2655,
      "uro": 2656,
      "Ã²i": 2657,
      "cell": 2658,
      "eld": 2659,
      "ChÆ°Æ¡ng": 2660,
      "tuy": 2661,
      "33": 2662,
      "though": 2663,
      "Mon": 2664,
      "must": 2665,
      "PM": 2666,
      "ected": 2667,
      "chá»©": 2668,
      "family": 2669,
      "change": 2670,
      "At": 2671,
      "important": 2672,
      "Sá»Ł": 2673,
      "háº¡ng": 2674,
      "ins": 2675,
      "tor": 2676,
      "proble": 2677,
      "ards": 2678,
      "key": 2679,
      "oogle": 2680,
      "She": 2681,
      "share": 2682,
      "Sá»±": 2683,
      "PH": 2684,
      "ours": 2685,
      "got": 2686,
      "ben": 2687,
      "spe": 2688,
      "Gia": 2689,
      "LE": 2690,
      "ready": 2691,
      "há»ĵng": 2692,
      "hÃłi": 2693,
      "CÃ´": 2694,
      "lai": 2695,
      "itch": 2696,
      "Â·": 2697,
      "might": 2698,
      "báº§u": 2699,
      "ling": 2700,
      "cáº§m": 2701,
      "bed": 2702,
      "La": 2703,
      "perform": 2704,
      "ÄĲáº£ng": 2705,
      "ngÅ©": 2706,
      "TrÃªn": 2707,
      "cus": 2708,
      "NhÆ°": 2709,
      "thÄĥm": 2710,
      "háº¡t": 2711,
      "nec": 2712,
      "thor": 2713,
      "gá»ĳc": 2714,
      "HÃ²a": 2715,
      "mÆ¡": 2716,
      "boo": 2717,
      "NhÃ¢n": 2718,
      "cÃ¡nh": 2719,
      "class": 2720,
      "ump": 2721,
      "55": 2722,
      "vice": 2723,
      "va": 2724,
      "dá»¯": 2725,
      "khá»ķ": 2726,
      "versity": 2727,
      "dÃ¡ng": 2728,
      "¥p": 2729,
      "soci": 2730,
      "Phong": 2731,
      "proper": 2732,
      "tháº³ng": 2733,
      "sal": 2734,
      "Top": 2735,
      "ÄĳÃ¨n": 2736,
      "láº¡": 2737,
      "alle": 2738,
      "niÃªn": 2739,
      "Hy": 2740,
      "Win": 2741,
      "ÄĲá»ĭa": 2742,
      "und": 2743,
      "song": 2744,
      "Dis": 2745,
      "ey": 2746,
      "something": 2747,
      "ster": 2748,
      "equ": 2749,
      "exam": 2750,
      "pic": 2751,
      "rá»Ńa": 2752,
      "nghiÃªm": 2753,
      "kiá»ĩm": 2754,
      "review": 2755,
      "XuÃ¢n": 2756,
      "Thiáº¿t": 2757,
      "email": 2758,
      "One": 2759,
      "90": 2760,
      "ah": 2761,
      "IS": 2762,
      "bá»ģn": 2763,
      "ÄĳÃŃch": 2764,
      "That": 2765,
      "hard": 2766,
      "ÌĢ": 2767,
      "state": 2768,
      "LÃ½": 2769,
      "38": 2770,
      "graph": 2771,
      "dem": 2772,
      "má»ĳi": 2773,
      "io": 2774,
      "consider": 2775,
      "By": 2776,
      "ÄĳÃ³n": 2777,
      "coi": 2778,
      "nÃ©t": 2779,
      "PT": 2780,
      "next": 2781,
      "VáºŃy": 2782,
      "services": 2783,
      "ball": 2784,
      "Bar": 2785,
      "oper": 2786,
      "buá»Ļc": 2787,
      "World": 2788,
      "tÃ¹y": 2789,
      "Äĳá»ĳc": 2790,
      "dá»ĭ": 2791,
      "til": 2792,
      "tá»Ļc": 2793,
      "Sy": 2794,
      "sáº¡n": 2795,
      "How": 2796,
      "ini": 2797,
      "indi": 2798,
      "Ninh": 2799,
      "Iá»": 2800,
      "working": 2801,
      "els": 2802,
      "dáº§n": 2803,
      "Sáº£n": 2804,
      "pha": 2805,
      "iá»ĩng": 2806,
      "Bu": 2807,
      "house": 2808,
      "provide": 2809,
      "give": 2810,
      "CA": 2811,
      "ile": 2812,
      "eo": 2813,
      "á»¯a": 2814,
      "actu": 2815,
      "vá»Ŀi": 2816,
      "chá»Ŀ": 2817,
      "ChÃºa": 2818,
      "UBND": 2819,
      "another": 2820,
      "ann": 2821,
      "ngá»į": 2822,
      "ever": 2823,
      "phÃºc": 2824,
      "ago": 2825,
      "ÃĤu": 2826,
      "quality": 2827,
      "phÃª": 2828,
      "sáº¯p": 2829,
      "LÃłm": 2830,
      "trao": 2831,
      "khá»ĳi": 2832,
      "xong": 2833,
      "¯ng": 2834,
      "bá»©c": 2835,
      "hold": 2836,
      "TÃłi": 2837,
      "Ã³t": 2838,
      "ken": 2839,
      "bÃŃ": 2840,
      "job": 2841,
      "máº¡ch": 2842,
      "within": 2843,
      "Ju": 2844,
      "dr": 2845,
      "Game": 2846,
      "manag": 2847,
      "BÃ¡o": 2848,
      "PháºŃt": 2849,
      "tional": 2850,
      "grow": 2851,
      "mus": 2852,
      "dio": 2853,
      "trÃºc": 2854,
      "lion": 2855,
      "Nga": 2856,
      "miá»ĩng": 2857,
      "thÃ¡c": 2858,
      "lá»įc": 2859,
      "quáº£ng": 2860,
      "keting": 2861,
      "ngáº¯n": 2862,
      "ately": 2863,
      "ĩt": 2864,
      "2011": 2865,
      "appe": 2866,
      "ased": 2867,
      "addition": 2868,
      "tÃłu": 2869,
      "náº¡n": 2870,
      "tá»Ļi": 2871,
      "since": 2872,
      "nor": 2873,
      "Dá»±": 2874,
      "cÃ¡n": 2875,
      "37": 2876,
      "Ta": 2877,
      "rest": 2878,
      "page": 2879,
      "VÅ©": 2880,
      "http": 2881,
      "ets": 2882,
      "táº¯c": 2883,
      "tháº»": 2884,
      "pop": 2885,
      "bra": 2886,
      "case": 2887,
      "prom": 2888,
      "suc": 2889,
      "bab": 2890,
      "Eng": 2891,
      "hÃ´n": 2892,
      "thÆ°á»Ľc": 2893,
      "ants": 2894,
      "ÄĳoÃ¡n": 2895,
      "TÆ°": 2896,
      "Facebook": 2897,
      "current": 2898,
      "Med": 2899,
      "Gu": 2900,
      "money": 2901,
      "shi": 2902,
      "gÃ³i": 2903,
      "bon": 2904,
      "Or": 2905,
      "lin": 2906,
      "CS": 2907,
      "buy": 2908,
      "never": 2909,
      "LÃł": 2910,
      "phi": 2911,
      "PhÃ³": 2912,
      "Äĳu": 2913,
      "Æ°á»Ŀn": 2914,
      "suá»ĳt": 2915,
      "rÃłng": 2916,
      "ker": 2917,
      "¥n": 2918,
      "comes": 2919,
      "PhÃ¡t": 2920,
      "recei": 2921,
      "Há»ĵng": 2922,
      "making": 2923,
      "mÃ¡t": 2924,
      "joy": 2925,
      "count": 2926,
      "ĵi": 2927,
      "Sá»ĳ": 2928,
      "bÃło": 2929,
      "háº§u": 2930,
      "control": 2931,
      "káº»": 2932,
      "mÃª": 2933,
      "BÆ°á»Ľc": 2934,
      "tice": 2935,
      "34": 2936,
      "pháºŃn": 2937,
      "photo": 2938,
      "ama": 2939,
      "direct": 2940,
      "vent": 2941,
      "looking": 2942,
      "area": 2943,
      "mÃ£i": 2944,
      "public": 2945,
      "AS": 2946,
      "vá»¯ng": 2947,
      "háº¡nh": 2948,
      "Phone": 2949,
      "vs": 2950,
      "trad": 2951,
      "plac": 2952,
      "truy": 2953,
      "cm": 2954,
      "náº¯m": 2955,
      "outh": 2956,
      "Linh": 2957,
      "lÆ°á»£t": 2958,
      "face": 2959,
      "lau": 2960,
      "lock": 2961,
      "áºµng": 2962,
      "GiÃ¡o": 2963,
      "bur": 2964,
      "Ľt": 2965,
      "ste": 2966,
      "Web": 2967,
      "ÄĲiá»ĩn": 2968,
      "mas": 2969,
      "Há»įc": 2970,
      "ats": 2971,
      "TC": 2972,
      "39": 2973,
      "Æ°á»£u": 2974,
      "32": 2975,
      "BÃł": 2976,
      "LÃ¢m": 2977,
      "thuáº¿": 2978,
      "bá»Ļt": 2979,
      "food": 2980,
      "Vá»ģ": 2981,
      "TS": 2982,
      "date": 2983,
      "Khu": 2984,
      "research": 2985,
      "kÃ©m": 2986,
      "tru": 2987,
      "Gre": 2988,
      "Our": 2989,
      "dÃµi": 2990,
      "huyáº¿t": 2991,
      "hÃ¡t": 2992,
      "atter": 2993,
      "train": 2994,
      "gÃł": 2995,
      "trá»ĵng": 2996,
      "bor": 2997,
      "ills": 2998,
      "ones": 2999,
      "Æ°á»¡ng": 3000,
      "away": 3001,
      "thá»¥": 3002,
      "ÄĲo": 3003,
      "link": 3004,
      "Ì£": 3005,
      "ending": 3006,
      "hop": 3007,
      "sÃ´ng": 3008,
      "Google": 3009,
      "sÃłn": 3010,
      "xung": 3011,
      "tÃ¡i": 3012,
      "kÃ¨o": 3013,
      "cÃł": 3014,
      "quÃł": 3015,
      "pi": 3016,
      "ather": 3017,
      "ãĢĤ": 3018,
      "75": 3019,
      "48": 3020,
      "ghts": 3021,
      "dÆ°Æ¡ng": 3022,
      "2010": 3023,
      "uary": 3024,
      "Nor": 3025,
      "met": 3026,
      "ÄĳÃ¡o": 3027,
      "Giáº£i": 3028,
      "Ä©a": 3029,
      "QuáºŃn": 3030,
      "wom": 3031,
      "ital": 3032,
      "oth": 3033,
      "Dec": 3034,
      "rÃºt": 3035,
      "Bá»ĩnh": 3036,
      "ÄĲÃ³": 3037,
      "applic": 3038,
      "pec": 3039,
      "chiáº¿u": 3040,
      "Ste": 3041,
      "hn": 3042,
      "ctor": 3043,
      "Des": 3044,
      "há»įa": 3045,
      "CÃ²n": 3046,
      "cular": 3047,
      "dá»±a": 3048,
      "Af": 3049,
      "ired": 3050,
      "MT": 3051,
      "ems": 3052,
      "understand": 3053,
      "ories": 3054,
      "ions": 3055,
      "mÃ¹i": 3056,
      "special": 3057,
      "check": 3058,
      "trÃ¹ng": 3059,
      "fur": 3060,
      "Äĳáº¥y": 3061,
      "lÃłn": 3062,
      "láº¯ng": 3063,
      "ngÆ°Æ¡i": 3064,
      "second": 3065,
      "láº¯m": 3066,
      "bÃły": 3067,
      "kÃ¨m": 3068,
      "Dá»ĭch": 3069,
      "ize": 3070,
      "lack": 3071,
      "rom": 3072,
      "thá»«a": 3073,
      "ney": 3074,
      "une": 3075,
      "thoáº£i": 3076,
      "nhiÃªu": 3077,
      "gháº¿": 3078,
      "ada": 3079,
      "prac": 3080,
      "CÆ¡": 3081,
      "Cao": 3082,
      "biá»ĩn": 3083,
      "lá»Ń": 3084,
      "OR": 3085,
      "lÃłnh": 3086,
      "sim": 3087,
      "KH": 3088,
      "sever": 3089,
      "cuá»ĳn": 3090,
      "AL": 3091,
      "custom": 3092,
      "sÃłng": 3093,
      "Nhiá»ģu": 3094,
      "ÄĲÆ°á»£c": 3095,
      "employ": 3096,
      "stu": 3097,
      "belie": 3098,
      "OS": 3099,
      "khuyáº¿n": 3100,
      "name": 3101,
      "IT": 3102,
      "cá»©ng": 3103,
      "certain": 3104,
      "hot": 3105,
      "PC": 3106,
      "vol": 3107,
      "local": 3108,
      "QuÃ½": 3109,
      "sum": 3110,
      "cra": 3111,
      "products": 3112,
      "today": 3113,
      "ÄĲáº¿n": 3114,
      "logi": 3115,
      "phiáº¿u": 3116,
      "ists": 3117,
      "ned": 3118,
      "chuyáº¿n": 3119,
      "Ľp": 3120,
      "áº¥c": 3121,
      "lease": 3122,
      "tuyÃªn": 3123,
      "Thá»±c": 3124,
      "nháº¯c": 3125,
      "ky": 3126,
      "ery": 3127,
      "reason": 3128,
      "kno": 3129,
      "aterial": 3130,
      "ges": 3131,
      "giÃ³": 3132,
      "vac": 3133,
      "táº¥m": 3134,
      "xáº¥u": 3135,
      "Náºµng": 3136,
      "works": 3137,
      "dows": 3138,
      "CE": 3139,
      "vÃ©": 3140,
      "Online": 3141,
      "Äĳá»«ng": 3142,
      "mÅ©i": 3143,
      "tháº§y": 3144,
      "tom": 3145,
      "vidu": 3146,
      "possible": 3147,
      "News": 3148,
      "tá»ĵn": 3149,
      "ended": 3150,
      "action": 3151,
      "Jan": 3152,
      "Pu": 3153,
      "tháºŃm": 3154,
      "dom": 3155,
      "course": 3156,
      "den": 3157,
      "vious": 3158,
      "students": 3159,
      "These": 3160,
      "áºł": 3161,
      "há»ģ": 3162,
      "kind": 3163,
      "300": 3164,
      "tÃ´n": 3165,
      "niá»ģm": 3166,
      "44": 3167,
      "Quang": 3168,
      "NÃ³": 3169,
      "Sun": 3170,
      "náº¯ng": 3171,
      "rÆ°á»£u": 3172,
      "rau": 3173,
      "Coun": 3174,
      "Min": 3175,
      "CN": 3176,
      "test": 3177,
      "Per": 3178,
      "wal": 3179,
      "tá»§": 3180,
      "tá»ī": 3181,
      "chiáº¿m": 3182,
      "chá»¥p": 3183,
      "lÆ°Æ¡ng": 3184,
      "Than": 3185,
      "Sam": 3186,
      "fully": 3187,
      "tem": 3188,
      "gáº¯n": 3189,
      "cáºŃn": 3190,
      "biÃªn": 3191,
      "hum": 3192,
      "impro": 3193,
      "Your": 3194,
      "came": 3195,
      "lÆ°á»£c": 3196,
      "AP": 3197,
      "áº¾": 3198,
      "ley": 3199,
      "pass": 3200,
      "ÄĲÆ°á»Ŀng": 3201,
      "aper": 3202,
      "Äĳá»Ļt": 3203,
      "icro": 3204,
      "Káº¿t": 3205,
      "Op": 3206,
      "blog": 3207,
      "night": 3208,
      "nÃºi": 3209,
      "Off": 3210,
      "ches": 3211,
      "group": 3212,
      "coming": 3213,
      "mind": 3214,
      "ched": 3215,
      "Air": 3216,
      "ister": 3217,
      "ism": 3218,
      "mission": 3219,
      "More": 3220,
      "Tim": 3221,
      "nology": 3222,
      "nháº¥n": 3223,
      "á»³": 3224,
      "parti": 3225,
      "tation": 3226,
      "ml": 3227,
      "gover": 3228,
      "máº½": 3229,
      "Indi": 3230,
      "against": 3231,
      "access": 3232,
      "law": 3233,
      "duc": 3234,
      "gether": 3235,
      "dÃły": 3236,
      "HÆ°á»Ľng": 3237,
      "thÆ¡m": 3238,
      "Cor": 3239,
      "sÃ³ng": 3240,
      "interest": 3241,
      "why": 3242,
      "Nha": 3243,
      "má»¥n": 3244,
      "ID": 3245,
      "á»§y": 3246,
      "sty": 3247,
      "fan": 3248,
      "cons": 3249,
      "tÃºi": 3250,
      "hist": 3251,
      "cel": 3252,
      "whe": 3253,
      "46": 3254,
      "Há»į": 3255,
      "lim": 3256,
      "Da": 3257,
      "San": 3258,
      "HÃ¬nh": 3259,
      "easy": 3260,
      "having": 3261,
      "HD": 3262,
      "giÃłu": 3263,
      "ÃĬ": 3264,
      "children": 3265,
      "war": 3266,
      "nment": 3267,
      "conom": 3268,
      "says": 3269,
      "km": 3270,
      "ared": 3271,
      "dit": 3272,
      "model": 3273,
      "lab": 3274,
      "lá»Ńa": 3275,
      "lec": 3276,
      "ThÆ°Æ¡ng": 3277,
      "gÃ³c": 3278,
      "ids": 3279,
      "TáºŃp": 3280,
      "ká»ĭp": 3281,
      "individu": 3282,
      "University": 3283,
      "ull": 3284,
      "imp": 3285,
      "itamin": 3286,
      "háº£o": 3287,
      "tháºŃn": 3288,
      "cep": 3289,
      "anal": 3290,
      "ails": 3291,
      "áº³n": 3292,
      "fect": 3293,
      "four": 3294,
      "elec": 3295,
      "mal": 3296,
      "atures": 3297,
      "hoÃłng": 3298,
      "ization": 3299,
      "tÆ°á»Ŀng": 3300,
      "dro": 3301,
      "cording": 3302,
      "ses": 3303,
      "profession": 3304,
      "vÃŃ": 3305,
      "khÃ¡ng": 3306,
      "Nhá»": 3307,
      "nha": 3308,
      "along": 3309,
      "CP": 3310,
      "ences": 3311,
      "Táº¥t": 3312,
      "Pháº§n": 3313,
      "xá»ķ": 3314,
      "ÄĲáº§u": 3315,
      "vÅ©": 3316,
      "pping": 3317,
      "prot": 3318,
      "TO": 3319,
      "lÃłng": 3320,
      "bá»įn": 3321,
      "Äĳá»¡": 3322,
      "ÄĤ": 3323,
      "report": 3324,
      "66": 3325,
      "tá»ĩ": 3326,
      "gáº¯ng": 3327,
      "Read": 3328,
      "live": 3329,
      "49": 3330,
      "á»ĩ": 3331,
      "John": 3332,
      "ution": 3333,
      "season": 3334,
      "iPhone": 3335,
      "success": 3336,
      "kem": 3337,
      "Chu": 3338,
      "needs": 3339,
      "ague": 3340,
      "thoÃ¡t": 3341,
      "stitu": 3342,
      "Ã©n": 3343,
      "onal": 3344,
      "chá»£": 3345,
      "price": 3346,
      "IP": 3347,
      "ose": 3348,
      "fort": 3349,
      "Äĳáº³ng": 3350,
      "thuyáº¿t": 3351,
      "mach": 3352,
      "often": 3353,
      "mÆ°a": 3354,
      "įt": 3355,
      "jor": 3356,
      "trÆ°ng": 3357,
      "actually": 3358,
      "ÄĲT": 3359,
      "tial": 3360,
      "deal": 3361,
      "Ã©o": 3362,
      "Pháº¡m": 3363,
      "á»·": 3364,
      "United": 3365,
      "near": 3366,
      "gá»įn": 3367,
      "kÃ¬": 3368,
      "náº¥u": 3369,
      "cháº·t": 3370,
      "77": 3371,
      "large": 3372,
      "together": 3373,
      "HÃłng": 3374,
      "lue": 3375,
      "material": 3376,
      "há»įp": 3377,
      "lÃ´ng": 3378,
      "LÆ°u": 3379,
      "Ti": 3380,
      "project": 3381,
      "ground": 3382,
      "news": 3383,
      "ont": 3384,
      "há»Ļp": 3385,
      "city": 3386,
      "member": 3387,
      "box": 3388,
      "pm": 3389,
      "ham": 3390,
      "dinh": 3391,
      "benef": 3392,
      "kháº³ng": 3393,
      "require": 3394,
      "sia": 3395,
      "hÃłm": 3396,
      "ninh": 3397,
      "Some": 3398,
      "ports": 3399,
      "Go": 3400,
      "Covid": 3401,
      "chÃ¡y": 3402,
      "pain": 3403,
      "quÃªn": 3404,
      "Stu": 3405,
      "LuáºŃt": 3406,
      "enjoy": 3407,
      "tá»¥": 3408,
      "Tá»Ń": 3409,
      "giÃłnh": 3410,
      "deli": 3411,
      "lÃ´": 3412,
      "vision": 3413,
      "event": 3414,
      "háº³n": 3415,
      "product": 3416,
      "EN": 3417,
      "Bá»Łi": 3418,
      "pati": 3419,
      "Mai": 3420,
      "Euro": 3421,
      "Pe": 3422,
      "However": 3423,
      "Cáº§n": 3424,
      "far": 3425,
      "táº¡p": 3426,
      "váº¿t": 3427,
      "board": 3428,
      "Má»Ĺi": 3429,
      "bs": 3430,
      "CÃ¹ng": 3431,
      "known": 3432,
      "God": 3433,
      "lÃ£o": 3434,
      "ford": 3435,
      "táº¯m": 3436,
      "kg": 3437,
      "riting": 3438,
      "rá»«ng": 3439,
      "bility": 3440,
      "lang": 3441,
      "include": 3442,
      "ngÆ°á»£c": 3443,
      "step": 3444,
      "After": 3445,
      "khung": 3446,
      "sáº¯t": 3447,
      "Máº·c": 3448,
      "shop": 3449,
      "oot": 3450,
      "def": 3451,
      "lÃ¡i": 3452,
      "Im": 3453,
      "wood": 3454,
      "ection": 3455,
      "VÆ°Æ¡ng": 3456,
      "Nov": 3457,
      "loáº¡t": 3458,
      "GiÃ¡m": 3459,
      "personal": 3460,
      "type": 3461,
      "bÃ¢y": 3462,
      "pan": 3463,
      "Rep": 3464,
      "ars": 3465,
      "recent": 3466,
      "Äĳá»£i": 3467,
      "phÃ³ng": 3468,
      "KhÃ¡ch": 3469,
      "ony": 3470,
      "âĢĭ": 3471,
      "ands": 3472,
      "47": 3473,
      "ĭn": 3474,
      "cÆ°á»Ľi": 3475,
      "áºŃc": 3476,
      "VID": 3477,
      "writ": 3478,
      "valu": 3479,
      "specific": 3480,
      "ual": 3481,
      "ÄĲá»Ļ": 3482,
      "social": 3483,
      "Park": 3484,
      "download": 3485,
      "ÄĳÃ¡m": 3486,
      "ox": 3487,
      "nhá»±a": 3488,
      "ÄĲÄĥng": 3489,
      "treat": 3490,
      "56": 3491,
      "chÃ¡u": 3492,
      "tá»Ŀ": 3493,
      "sÆ¡n": 3494,
      "ustry": 3495,
      "visit": 3496,
      "getting": 3497,
      "pes": 3498,
      "aid": 3499,
      "rÆ¡i": 3500,
      "viron": 3501,
      "ES": 3502,
      "content": 3503,
      "position": 3504,
      "GI": 3505,
      "Tw": 3506,
      "hoÃ¡": 3507,
      "ird": 3508,
      "field": 3509,
      "alo": 3510,
      "SÃłi": 3511,
      "sá»ķ": 3512,
      "ush": 3513,
      "means": 3514,
      "Sep": 3515,
      "HO": 3516,
      "compan": 3517,
      "ona": 3518,
      "Cá»ķ": 3519,
      "create": 3520,
      "bank": 3521,
      "community": 3522,
      "makes": 3523,
      "liá»ĩt": 3524,
      "roid": 3525,
      "Táº¿t": 3526,
      "Har": 3527,
      "pháº¡t": 3528,
      "casino": 3529,
      "Sá»Ń": 3530,
      "else": 3531,
      "fy": 3532,
      "ÃĿ": 3533,
      "watch": 3534,
      "ana": 3535,
      "Tiá»ĥu": 3536,
      "building": 3537,
      "plain": 3538,
      "tour": 3539,
      "done": 3540,
      "pack": 3541,
      "several": 3542,
      "Tech": 3543,
      "lÃ£i": 3544,
      "ngá»įt": 3545,
      "Nháº¥t": 3546,
      "trÄĥm": 3547,
      "tá»ı": 3548,
      "ðŁ": 3549,
      "dá»«ng": 3550,
      "cÃłi": 3551,
      "artic": 3552,
      "khuÃ´n": 3553,
      "ref": 3554,
      "85": 3555,
      "range": 3556,
      "giáº£ng": 3557,
      "wa": 3558,
      "Quy": 3559,
      "educ": 3560,
      "VÃ¢n": 3561,
      "trá»«": 3562,
      "file": 3563,
      "tháº£i": 3564,
      "inf": 3565,
      "beau": 3566,
      "icy": 3567,
      "Whi": 3568,
      "spo": 3569,
      "until": 3570,
      "bá»¯a": 3571,
      "clear": 3572,
      "cháºŃm": 3573,
      "dá»ĭp": 3574,
      "icul": 3575,
      "stay": 3576,
      "ná»£": 3577,
      "national": 3578,
      "lik": 3579,
      "xÆ°Æ¡ng": 3580,
      "pin": 3581,
      "ná»Ńa": 3582,
      "trá»©ng": 3583,
      "clean": 3584,
      "ngáº¡i": 3585,
      "become": 3586,
      "trá»¥": 3587,
      "thÃŃ": 3588,
      "xinh": 3589,
      "ances": 3590,
      "ica": 3591,
      "remo": 3592,
      "ÄĳÃ£i": 3593,
      "development": 3594,
      "Ne": 3595,
      "AD": 3596,
      "press": 3597,
      "ently": 3598,
      "bá»¥ng": 3599,
      "begin": 3600,
      "má»Ļ": 3601,
      "ource": 3602,
      "LÃºc": 3603,
      "ÄĳÆ°Æ¡ng": 3604,
      "defin": 3605,
      "báºŃc": 3606,
      "tÃ²a": 3607,
      "khuáº©n": 3608,
      "kháº¯p": 3609,
      "lÆ°ng": 3610,
      "ners": 3611,
      "YÃªn": 3612,
      "Äĳá»©a": 3613,
      "chÃłng": 3614,
      "láº«n": 3615,
      "ÄĲÃ¬nh": 3616,
      "gáº¥p": 3617,
      "author": 3618,
      "fied": 3619,
      "mean": 3620,
      "Posted": 3621,
      "left": 3622,
      "Æ¯á»": 3623,
      "aring": 3624,
      "aul": 3625,
      "gas": 3626,
      "tool": 3627,
      "Fin": 3628,
      "ames": 3629,
      "bin": 3630,
      "invest": 3631,
      "táº¡m": 3632,
      "exper": 3633,
      "called": 3634,
      "má»Ŀi": 3635,
      "trav": 3636,
      "Aug": 3637,
      "Internet": 3638,
      "ngÃ´n": 3639,
      "Phi": 3640,
      "quick": 3641,
      "thua": 3642,
      "curity": 3643,
      "tell": 3644,
      "cá»¥c": 3645,
      "ency": 3646,
      "sex": 3647,
      "lect": 3648,
      "games": 3649,
      "friend": 3650,
      "contain": 3651,
      "trÃł": 3652,
      "ÄĲoÃłn": 3653,
      "buá»ĵn": 3654,
      "major": 3655,
      "CL": 3656,
      "gar": 3657,
      "vil": 3658,
      "enough": 3659,
      "Mu": 3660,
      "má»«ng": 3661,
      "others": 3662,
      "already": 3663,
      "Pri": 3664,
      "Há»ĩ": 3665,
      "hal": 3666,
      "word": 3667,
      "ged": 3668,
      "má»ĩnh": 3669,
      "gl": 3670,
      "Ãļ": 3671,
      "country": 3672,
      "bÄĥng": 3673,
      "cr": 3674,
      "Apr": 3675,
      "QuÃ¢n": 3676,
      "thÃ´n": 3677,
      "ential": 3678,
      "size": 3679,
      "á»Ĺi": 3680,
      "particular": 3681,
      "past": 3682,
      "teach": 3683,
      "sell": 3684,
      "CÅ©ng": 3685,
      "báº¡i": 3686,
      "cáº·p": 3687,
      "supp": 3688,
      "TÃ¢m": 3689,
      "stre": 3690,
      "bá»ģ": 3691,
      "tures": 3692,
      "short": 3693,
      "á»Ļp": 3694,
      "space": 3695,
      "ngá»«ng": 3696,
      "scre": 3697,
      "study": 3698,
      "example": 3699,
      "ering": 3700,
      "gs": 3701,
      "doing": 3702,
      "following": 3703,
      "táº£ng": 3704,
      "cháº£y": 3705,
      "Ab": 3706,
      "multi": 3707,
      "2009": 3708,
      "Fi": 3709,
      "Máº¹": 3710,
      "opport": 3711,
      "members": 3712,
      "bÃ¨": 3713,
      "mom": 3714,
      "khiá»ĥn": 3715,
      "dam": 3716,
      "perfect": 3717,
      "GÃ²n": 3718,
      "unic": 3719,
      "lá»ĩnh": 3720,
      "DÃ¢n": 3721,
      "DÃ¹": 3722,
      "IC": 3723,
      "Äĳiá»ĥn": 3724,
      "RO": 3725,
      "Up": 3726,
      "khÃºc": 3727,
      "ised": 3728,
      "báº¯n": 3729,
      "strate": 3730,
      "metho": 3731,
      "HÆ°Æ¡ng": 3732,
      "rá»Ŀi": 3733,
      "Pol": 3734,
      "binh": 3735,
      "story": 3736,
      "stat": 3737,
      "ount": 3738,
      "ei": 3739,
      "usu": 3740,
      "py": 3741,
      "struc": 3742,
      "cÄĥng": 3743,
      "Windows": 3744,
      "oud": 3745,
      "PS": 3746,
      "purch": 3747,
      "vironment": 3748,
      "tivi": 3749,
      "IM": 3750,
      "Net": 3751,
      "mb": 3752,
      "didn": 3753,
      "code": 3754,
      "tware": 3755,
      "Ca": 3756,
      "NgÃ¢n": 3757,
      "ective": 3758,
      "lá»ĳi": 3759,
      "alleng": 3760,
      "nguyá»ĩn": 3761,
      "Khoa": 3762,
      "Camera": 3763,
      "HL": 3764,
      "reli": 3765,
      "TiÃªn": 3766,
      "vÆ°á»Ŀn": 3767,
      "Xe": 3768,
      "táº¯t": 3769,
      "hom": 3770,
      "¥i": 3771,
      "aster": 3772,
      "Äĳá»©c": 3773,
      "coin": 3774,
      "cept": 3775,
      "Bro": 3776,
      "tage": 3777,
      "trá»¯": 3778,
      "Máº·t": 3779,
      "quÃª": 3780,
      "cÆ¡m": 3781,
      "mor": 3782,
      "Nghá»ĩ": 3783,
      "Dr": 3784,
      "ancial": 3785,
      "COVID": 3786,
      "ufac": 3787,
      "mai": 3788,
      "American": 3789,
      "Vin": 3790,
      "months": 3791,
      "advan": 3792,
      "ints": 3793,
      "háº£i": 3794,
      "abo": 3795,
      "BÃ¡n": 3796,
      "across": 3797,
      "Fl": 3798,
      "TÃ¬nh": 3799,
      "65": 3800,
      "Sing": 3801,
      "Quan": 3802,
      "mobi": 3803,
      "ler": 3804,
      "táº£": 3805,
      "phÃº": 3806,
      "QU": 3807,
      "marketing": 3808,
      "econom": 3809,
      "card": 3810,
      "fav": 3811,
      "thá»Ł": 3812,
      "conf": 3813,
      "á»įi": 3814,
      "truyá»ĩn": 3815,
      "mail": 3816,
      "continu": 3817,
      "ources": 3818,
      "§i": 3819,
      "thá»Ŀ": 3820,
      "lá»¥c": 3821,
      "phÆ°á»Ŀng": 3822,
      "Tiáº¿n": 3823,
      "ngang": 3824,
      "flo": 3825,
      "lÆ°á»Ľi": 3826,
      "khá»§ng": 3827,
      "ork": 3828,
      "recor": 3829,
      "thang": 3830,
      "Nghá»": 3831,
      "±ng": 3832,
      "door": 3833,
      "42": 3834,
      "medi": 3835,
      "due": 3836,
      "loáº¡n": 3837,
      "crus": 3838,
      "Sinh": 3839,
      "san": 3840,
      "Kho": 3841,
      "xá»©": 3842,
      "ark": 3843,
      "sá»©": 3844,
      "lá»Ĺ": 3845,
      "function": 3846,
      "ná»ķ": 3847,
      "Äĳá»ĭch": 3848,
      "ET": 3849,
      "dies": 3850,
      "clai": 3851,
      "BÃŃ": 3852,
      "industry": 3853,
      "Chr": 3854,
      "tá»ķn": 3855,
      "ot": 3856,
      "quang": 3857,
      "writing": 3858,
      "Review": 3859,
      "HÆ°ng": 3860,
      "ÃĶNG": 3861,
      "rá»ĳi": 3862,
      "crip": 3863,
      "Bra": 3864,
      "tÃ´ng": 3865,
      "68": 3866,
      "least": 3867,
      "ny": 3868,
      "Sa": 3869,
      "recomm": 3870,
      "sident": 3871,
      "hours": 3872,
      "cut": 3873,
      "2008": 3874,
      "Tiá»ģn": 3875,
      "59": 3876,
      "thá»ıa": 3877,
      "Now": 3878,
      "wide": 3879,
      "return": 3880,
      "contact": 3881,
      "Her": 3882,
      "soft": 3883,
      "once": 3884,
      "government": 3885,
      "yo": 3886,
      "dÆ°á»£c": 3887,
      "doesn": 3888,
      "orig": 3889,
      "fit": 3890,
      "problem": 3891,
      "máº¯n": 3892,
      "hÃło": 3893,
      "Cas": 3894,
      "install": 3895,
      "Of": 3896,
      "fast": 3897,
      "dai": 3898,
      "ÄĳáºŃu": 3899,
      "vices": 3900,
      "43": 3901,
      "virus": 3902,
      "há»ĵn": 3903,
      "wards": 3904,
      "offers": 3905,
      "million": 3906,
      "nhÃłng": 3907,
      "companies": 3908,
      "nghÃ¨o": 3909,
      "Cup": 3910,
      "Tag": 3911,
      "blished": 3912,
      "future": 3913,
      "ond": 3914,
      "£t": 3915,
      "High": 3916,
      "vá»ı": 3917,
      "Black": 3918,
      "concer": 3919,
      "á»¦": 3920,
      "mobile": 3921,
      "78": 3922,
      "háº¹n": 3923,
      "strong": 3924,
      "CÃ¢u": 3925,
      "taking": 3926,
      "illi": 3927,
      "hÃ¨": 3928,
      "Giá»Ľi": 3929,
      "Háº¡": 3930,
      "CD": 3931,
      "charac": 3932,
      "single": 3933,
      "lay": 3934,
      "Apple": 3935,
      "giá»ıi": 3936,
      "LO": 3937,
      "trá»įn": 3938,
      "value": 3939,
      "mÃły": 3940,
      "ÄĳÃ²i": 3941,
      "lobal": 3942,
      "technology": 3943,
      "ticip": 3944,
      "earch": 3945,
      "camp": 3946,
      "jects": 3947,
      "women": 3948,
      "internet": 3949,
      "Ìī": 3950,
      "giáº¥c": 3951,
      "ÄĲá»ĭnh": 3952,
      "League": 3953,
      "58": 3954,
      "thÆ°á»£ng": 3955,
      "sions": 3956,
      "invol": 3957,
      "cÃº": 3958,
      "gital": 3959,
      "Ã£ng": 3960,
      "town": 3961,
      "cing": 3962,
      "ED": 3963,
      "tran": 3964,
      "lap": 3965,
      "chÃło": 3966,
      "sites": 3967,
      "started": 3968,
      "NÆ°á»Ľc": 3969,
      "round": 3970,
      "CB": 3971,
      "gÆ°Æ¡ng": 3972,
      "Ãºy": 3973,
      "loÃłi": 3974,
      "Tháº§n": 3975,
      "ests": 3976,
      "Real": 3977,
      "Äĳá»īnh": 3978,
      "Fri": 3979,
      "GD": 3980,
      "roll": 3981,
      "thought": 3982,
      "ening": 3983,
      "ná»Ĺi": 3984,
      "eter": 3985,
      "Bus": 3986,
      "Mal": 3987,
      "ka": 3988,
      "young": 3989,
      "ense": 3990,
      "nal": 3991,
      "Äĳá»ĩ": 3992,
      "offic": 3993,
      "bia": 3994,
      "tral": 3995,
      "vitamin": 3996,
      "flow": 3997,
      "Get": 3998,
      "oi": 3999,
      "surance": 4000,
      "ram": 4001,
      "Phan": 4002,
      "trÃ²n": 4003,
      "identi": 4004,
      "nhi": 4005,
      "ateg": 4006,
      "HÃ³a": 4007,
      "cháº¡m": 4008,
      "tings": 4009,
      "auto": 4010,
      "York": 4011,
      "Down": 4012,
      "Ty": 4013,
      "origin": 4014,
      "ori": 4015,
      "Sal": 4016,
      "BÃ¡c": 4017,
      "break": 4018,
      "Hi": 4019,
      "atural": 4020,
      "rl": 4021,
      "cook": 4022,
      "Ni": 4023,
      "given": 4024,
      "media": 4025,
      "ially": 4026,
      "learn": 4027,
      "peti": 4028,
      "admin": 4029,
      "remain": 4030,
      "52": 4031,
      "ior": 4032,
      "MÃ£": 4033,
      "early": 4034,
      "music": 4035,
      "lam": 4036,
      "bring": 4037,
      "tribu": 4038,
      "features": 4039,
      "má»¡": 4040,
      "tÄ©nh": 4041,
      "Viá»ĩn": 4042,
      "Oc": 4043,
      "cÆ¡n": 4044,
      "chÃ³": 4045,
      "lish": 4046,
      "front": 4047,
      "hope": 4048,
      "tÃ¢n": 4049,
      "41": 4050,
      "xÆ°a": 4051,
      "friends": 4052,
      "rele": 4053,
      "tis": 4054,
      "aps": 4055,
      "Tiáº¿p": 4056,
      "400": 4057,
      "ju": 4058,
      "Rec": 4059,
      "via": 4060,
      "á»¹": 4061,
      "results": 4062,
      "giÃł": 4063,
      "trÃ´ng": 4064,
      "Mac": 4065,
      "Mc": 4066,
      "za": 4067,
      "ples": 4068,
      "mid": 4069,
      "yet": 4070,
      "nes": 4071,
      "tar": 4072,
      "thÃ©p": 4073,
      "57": 4074,
      "ship": 4075,
      "Cá»Ļng": 4076,
      "thá»±": 4077,
      "everything": 4078,
      "AI": 4079,
      "ilities": 4080,
      "TÃ¬m": 4081,
      "bÃ©o": 4082,
      "thoÃ¡ng": 4083,
      "198": 4084,
      "KhÃ¡nh": 4085,
      "ference": 4086,
      "ision": 4087,
      "Chris": 4088,
      "phÃ¡i": 4089,
      "series": 4090,
      "sel": 4091,
      "Trump": 4092,
      "istr": 4093,
      "Pho": 4094,
      "PhÃºc": 4095
    },
    "merges": [
      [
        "á",
        "»"
      ],
      [
        "á",
        "º"
      ],
      [
        "n",
        "g"
      ],
      [
        "t",
        "h"
      ],
      [
        "n",
        "h"
      ],
      [
        "Ä",
        "ĳ"
      ],
      [
        "Ã",
        "ł"
      ],
      [
        "c",
        "h"
      ],
      [
        "Æ",
        "°"
      ],
      [
        "Ã",
        "¡"
      ],
      [
        "t",
        "r"
      ],
      [
        "a",
        "n"
      ],
      [
        "i",
        "á»"
      ],
      [
        "e",
        "r"
      ],
      [
        "Æ°",
        "á»"
      ],
      [
        "áº",
        "¡"
      ],
      [
        "áº",
        "¿"
      ],
      [
        "o",
        "n"
      ],
      [
        "i",
        "n"
      ],
      [
        "Ã",
        "´"
      ],
      [
        "k",
        "h"
      ],
      [
        "t",
        "i"
      ],
      [
        "áº",
        "£"
      ],
      [
        "Ã",
        "ª"
      ],
      [
        "r",
        "e"
      ],
      [
        "Ã",
        "³"
      ],
      [
        "th",
        "e"
      ],
      [
        "á»",
        "Ļ"
      ],
      [
        "áº",
        "¥"
      ],
      [
        "p",
        "h"
      ],
      [
        "e",
        "n"
      ],
      [
        "o",
        "r"
      ],
      [
        "á»",
        "ĳ"
      ],
      [
        "iá»",
        "ĩ"
      ],
      [
        "o",
        "u"
      ],
      [
        "e",
        "s"
      ],
      [
        "Ã",
        "¢"
      ],
      [
        "a",
        "l"
      ],
      [
        "t",
        "o"
      ],
      [
        "Ãª",
        "n"
      ],
      [
        "Ã´",
        "ng"
      ],
      [
        "a",
        "t"
      ],
      [
        "Ã",
        "¬"
      ],
      [
        "i",
        "s"
      ],
      [
        "Äĳ",
        "á»"
      ],
      [
        "v",
        "á»"
      ],
      [
        "v",
        "Ãł"
      ],
      [
        "a",
        "r"
      ],
      [
        "Æ",
        "¡"
      ],
      [
        "h",
        "á»"
      ],
      [
        "g",
        "i"
      ],
      [
        "e",
        "d"
      ],
      [
        "c",
        "á»"
      ],
      [
        "q",
        "u"
      ],
      [
        "áº",
        "Ń"
      ],
      [
        "an",
        "d"
      ],
      [
        "th",
        "á»"
      ],
      [
        "i",
        "ng"
      ],
      [
        "áº",
        "§"
      ],
      [
        "a",
        "s"
      ],
      [
        "l",
        "Ãł"
      ],
      [
        "Ã¡",
        "c"
      ],
      [
        "Ã",
        "Ń"
      ],
      [
        "o",
        "f"
      ],
      [
        "Ľ",
        "i"
      ],
      [
        "a",
        "y"
      ],
      [
        "Æ°á»",
        "Ŀ"
      ],
      [
        "i",
        "t"
      ],
      [
        "Æ°á»",
        "£"
      ],
      [
        "t",
        "á»"
      ],
      [
        "áº¥",
        "t"
      ],
      [
        "Ä",
        "ĥ"
      ],
      [
        "l",
        "e"
      ],
      [
        "u",
        "y"
      ],
      [
        "o",
        "ng"
      ],
      [
        "c",
        "Ã³"
      ],
      [
        "cá»",
        "§"
      ],
      [
        "áº¡",
        "i"
      ],
      [
        "cá»§",
        "a"
      ],
      [
        "a",
        "m"
      ],
      [
        "T",
        "h"
      ],
      [
        "o",
        "m"
      ],
      [
        "Ã",
        "º"
      ],
      [
        "ch",
        "á»"
      ],
      [
        "i",
        "áº¿"
      ],
      [
        "áº",
        "¯"
      ],
      [
        "Ä",
        "Ĳ"
      ],
      [
        "Ã",
        "£"
      ],
      [
        "h",
        "o"
      ],
      [
        "Ã¬",
        "nh"
      ],
      [
        "iá»",
        "ģ"
      ],
      [
        "Æ°á»£",
        "c"
      ],
      [
        "l",
        "o"
      ],
      [
        "s",
        "t"
      ],
      [
        "i",
        "c"
      ],
      [
        "Ã¢",
        "n"
      ],
      [
        "d",
        "á»"
      ],
      [
        "a",
        "i"
      ],
      [
        "ti",
        "on"
      ],
      [
        "â",
        "Ģ"
      ],
      [
        "á»Ļ",
        "t"
      ],
      [
        "e",
        "l"
      ],
      [
        "c",
        "Ã¡c"
      ],
      [
        "ch",
        "o"
      ],
      [
        "Äĳ",
        "Æ°á»£c"
      ],
      [
        "s",
        "á»"
      ],
      [
        "2",
        "0"
      ],
      [
        "r",
        "a"
      ],
      [
        "kh",
        "Ã´ng"
      ],
      [
        "Ã",
        "²"
      ],
      [
        "á»",
        "¯"
      ],
      [
        "Ãł",
        "y"
      ],
      [
        "Ã",
        "¹"
      ],
      [
        "l",
        "á»"
      ],
      [
        "s",
        "e"
      ],
      [
        "en",
        "t"
      ],
      [
        "r",
        "o"
      ],
      [
        "áº",
        "·"
      ],
      [
        "a",
        "c"
      ],
      [
        "b",
        "á»"
      ],
      [
        "iá»ĩ",
        "n"
      ],
      [
        "m",
        "á»"
      ],
      [
        "tr",
        "ong"
      ],
      [
        "a",
        "ng"
      ],
      [
        "áº¡",
        "n"
      ],
      [
        "m",
        "á»Ļt"
      ],
      [
        "i",
        "l"
      ],
      [
        "e",
        "m"
      ],
      [
        "áº§",
        "n"
      ],
      [
        "vá»",
        "Ľi"
      ],
      [
        "f",
        "or"
      ],
      [
        "Æ°á»",
        "Ľ"
      ],
      [
        "Æ°á»Ŀ",
        "i"
      ],
      [
        "v",
        "e"
      ],
      [
        "s",
        "i"
      ],
      [
        "a",
        "o"
      ],
      [
        "a",
        "nh"
      ],
      [
        "iá»ģ",
        "u"
      ],
      [
        "b",
        "e"
      ],
      [
        "y",
        "ou"
      ],
      [
        "a",
        "d"
      ],
      [
        "Æ°",
        "Æ¡"
      ],
      [
        "iá»",
        "ĥ"
      ],
      [
        "i",
        "Ãªn"
      ],
      [
        "a",
        "u"
      ],
      [
        "©",
        "ng"
      ],
      [
        "áº£",
        "i"
      ],
      [
        "l",
        "y"
      ],
      [
        "ng",
        "Æ°á»Ŀi"
      ],
      [
        "Ãł",
        "ng"
      ],
      [
        "áº£",
        "n"
      ],
      [
        "Ãł",
        "nh"
      ],
      [
        "Æ°á»Ŀ",
        "ng"
      ],
      [
        "áº¿",
        "n"
      ],
      [
        "tr",
        "á»"
      ],
      [
        "Æ°Æ¡",
        "ng"
      ],
      [
        "Ã¡",
        "ch"
      ],
      [
        "á»¯",
        "ng"
      ],
      [
        "nh",
        "á»¯ng"
      ],
      [
        "nh",
        "Æ°"
      ],
      [
        "h",
        "i"
      ],
      [
        "Ãł",
        "n"
      ],
      [
        "áº§",
        "u"
      ],
      [
        "Ãł",
        "i"
      ],
      [
        "Äĳ",
        "á»Ļ"
      ],
      [
        "e",
        "t"
      ],
      [
        "c",
        "on"
      ],
      [
        "±",
        "c"
      ],
      [
        "©",
        "c"
      ],
      [
        "s",
        "u"
      ],
      [
        "Ã¢",
        "y"
      ],
      [
        "Æ°á»Ľ",
        "c"
      ],
      [
        "o",
        "l"
      ],
      [
        "áº¿",
        "t"
      ],
      [
        "T",
        "r"
      ],
      [
        "thá»",
        "ĥ"
      ],
      [
        "v",
        "er"
      ],
      [
        "uy",
        "á»"
      ],
      [
        "Äĳá»",
        "ĥ"
      ],
      [
        "áºŃ",
        "n"
      ],
      [
        "d",
        "e"
      ],
      [
        "d",
        "o"
      ],
      [
        "c",
        "u"
      ],
      [
        "Ã´",
        "i"
      ],
      [
        "Äĳ",
        "Ã£"
      ],
      [
        "g",
        "h"
      ],
      [
        "a",
        "re"
      ],
      [
        "b",
        "áº¡n"
      ],
      [
        "t",
        "er"
      ],
      [
        "l",
        "i"
      ],
      [
        "Äĥ",
        "ng"
      ],
      [
        "Ã¹",
        "ng"
      ],
      [
        "ÃŃ",
        "nh"
      ],
      [
        "C",
        "h"
      ],
      [
        "áºŃ",
        "t"
      ],
      [
        "w",
        "i"
      ],
      [
        "áº",
        "½"
      ],
      [
        "á»ĳ",
        "i"
      ],
      [
        "t",
        "a"
      ],
      [
        "Ŀ",
        "i"
      ],
      [
        "ng",
        "h"
      ],
      [
        "n",
        "o"
      ],
      [
        "áº",
        "©"
      ],
      [
        "Ã",
        "½"
      ],
      [
        "u",
        "n"
      ],
      [
        "th",
        "at"
      ],
      [
        "r",
        "i"
      ],
      [
        "Æ¡",
        "n"
      ],
      [
        "c",
        "om"
      ],
      [
        "á»",
        "Ł"
      ],
      [
        "v",
        "i"
      ],
      [
        "iáº¿",
        "t"
      ],
      [
        "a",
        "tion"
      ],
      [
        "á»ĳ",
        "ng"
      ],
      [
        "c",
        "e"
      ],
      [
        "n",
        "Ãły"
      ],
      [
        "u",
        "s"
      ],
      [
        "i",
        "nh"
      ],
      [
        "c",
        "Ã´ng"
      ],
      [
        "Äĥ",
        "n"
      ],
      [
        "á»",
        "ĵ"
      ],
      [
        "0",
        "0"
      ],
      [
        "u",
        "ng"
      ],
      [
        "Ã",
        "©"
      ],
      [
        "wi",
        "th"
      ],
      [
        "tá»",
        "«"
      ],
      [
        "Th",
        "e"
      ],
      [
        "Äĳ",
        "áº¿n"
      ],
      [
        "N",
        "g"
      ],
      [
        "há»",
        "į"
      ],
      [
        "a",
        "g"
      ],
      [
        "a",
        "b"
      ],
      [
        "s",
        "áº½"
      ],
      [
        "Ã¡",
        "n"
      ],
      [
        "iá»ĩ",
        "t"
      ],
      [
        "Ã¡",
        "t"
      ],
      [
        "kh",
        "i"
      ],
      [
        "Å",
        "©ng"
      ],
      [
        "g",
        "iá»"
      ],
      [
        "d",
        "i"
      ],
      [
        "th",
        "u"
      ],
      [
        "Ã¡",
        "i"
      ],
      [
        "dá»",
        "¥"
      ],
      [
        "á»Ļ",
        "i"
      ],
      [
        "t",
        "u"
      ],
      [
        "Äĳ",
        "Ã³"
      ],
      [
        "á»",
        "ķ"
      ],
      [
        "Äĥ",
        "m"
      ],
      [
        "p",
        "ro"
      ],
      [
        "vá»",
        "ģ"
      ],
      [
        "e",
        "c"
      ],
      [
        "c",
        "áº£"
      ],
      [
        "lÃł",
        "m"
      ],
      [
        "á»ĳ",
        "c"
      ],
      [
        "áº",
        "±"
      ],
      [
        "iá»ĩ",
        "u"
      ],
      [
        "P",
        "h"
      ],
      [
        "er",
        "s"
      ],
      [
        "Ã¡",
        "ng"
      ],
      [
        "m",
        "o"
      ],
      [
        "w",
        "e"
      ],
      [
        "nh",
        "iá»ģu"
      ],
      [
        "l",
        "u"
      ],
      [
        "c",
        "Å©ng"
      ],
      [
        "áº¥",
        "y"
      ],
      [
        "a",
        "p"
      ],
      [
        "s",
        "o"
      ],
      [
        "áºŃ",
        "p"
      ],
      [
        "vÃł",
        "o"
      ],
      [
        "m",
        "Ãł"
      ],
      [
        "k",
        "e"
      ],
      [
        "m",
        "u"
      ],
      [
        "t",
        "s"
      ],
      [
        "Ãª",
        "u"
      ],
      [
        "20",
        "1"
      ],
      [
        "tr",
        "Ãªn"
      ],
      [
        "áº",
        "«"
      ],
      [
        "iáº¿",
        "n"
      ],
      [
        "Ã¡",
        "o"
      ],
      [
        "l",
        "áº¡i"
      ],
      [
        "t",
        "áº¡i"
      ],
      [
        "e",
        "x"
      ],
      [
        "b",
        "u"
      ],
      [
        "Ã²",
        "ng"
      ],
      [
        "dá»¥",
        "ng"
      ],
      [
        "h",
        "Ãłng"
      ],
      [
        "Äĳá»",
        "ĭ"
      ],
      [
        "ÃŃ",
        "ch"
      ],
      [
        "nh",
        "Ãł"
      ],
      [
        "iá»ĩ",
        "c"
      ],
      [
        "Ãº",
        "ng"
      ],
      [
        "i",
        "m"
      ],
      [
        "ti",
        "ng"
      ],
      [
        "chá»",
        "ī"
      ],
      [
        "N",
        "h"
      ],
      [
        "i",
        "r"
      ],
      [
        "nh",
        "áº¥t"
      ],
      [
        "Ãł",
        "o"
      ],
      [
        "p",
        "o"
      ],
      [
        "Äĳ",
        "áº§u"
      ],
      [
        "sá»",
        "±"
      ],
      [
        "th",
        "er"
      ],
      [
        "áº£",
        "o"
      ],
      [
        "n",
        "e"
      ],
      [
        "n",
        "Ã³"
      ],
      [
        "s",
        "á»ĳ"
      ],
      [
        "áº¥",
        "p"
      ],
      [
        "áº·",
        "c"
      ],
      [
        "bá»",
        "ĭ"
      ],
      [
        "h",
        "iá»ĩn"
      ],
      [
        "áº¯",
        "c"
      ],
      [
        "Q",
        "u"
      ],
      [
        "áº·",
        "t"
      ],
      [
        "al",
        "l"
      ],
      [
        "Æ°á»£",
        "ng"
      ],
      [
        "m",
        "e"
      ],
      [
        "âĢ",
        "ĵ"
      ],
      [
        "il",
        "l"
      ],
      [
        "Ã¢",
        "m"
      ],
      [
        "ĭ",
        "ch"
      ],
      [
        "es",
        "s"
      ],
      [
        "h",
        "e"
      ],
      [
        "¥",
        "c"
      ],
      [
        "áº",
        "»"
      ],
      [
        "h",
        "a"
      ],
      [
        "Äĳá»Ļ",
        "ng"
      ],
      [
        "ou",
        "r"
      ],
      [
        "p",
        "l"
      ],
      [
        "o",
        "o"
      ],
      [
        "Ä",
        "©"
      ],
      [
        "Äĳá»",
        "ĵ"
      ],
      [
        "ou",
        "t"
      ],
      [
        "áº",
        "¹"
      ],
      [
        "th",
        "Ãłnh"
      ],
      [
        "Ã¡",
        "nh"
      ],
      [
        "at",
        "e"
      ],
      [
        "v",
        "iá»ĩc"
      ],
      [
        "on",
        "e"
      ],
      [
        "Ã²",
        "n"
      ],
      [
        "áº±",
        "ng"
      ],
      [
        "re",
        "s"
      ],
      [
        "Ã¢",
        "u"
      ],
      [
        "d",
        "u"
      ],
      [
        "Æ¡",
        "i"
      ],
      [
        "th",
        "Ã¬"
      ],
      [
        "ph",
        "áº£i"
      ],
      [
        "Ã¡",
        "p"
      ],
      [
        "t",
        "e"
      ],
      [
        "áº¡",
        "o"
      ],
      [
        "n",
        "Äĥm"
      ],
      [
        "iá»ģ",
        "n"
      ],
      [
        "uy",
        "Ãªn"
      ],
      [
        "iá»ĥ",
        "m"
      ],
      [
        "p",
        "er"
      ],
      [
        "c",
        "o"
      ],
      [
        "Ã´",
        "n"
      ],
      [
        "ng",
        "Ãły"
      ],
      [
        "l",
        "d"
      ],
      [
        "Ãº",
        "c"
      ],
      [
        "£",
        "p"
      ],
      [
        "áº¯",
        "t"
      ],
      [
        "há»į",
        "c"
      ],
      [
        "áº¡",
        "t"
      ],
      [
        "ti",
        "áº¿"
      ],
      [
        "it",
        "y"
      ],
      [
        "m",
        "ent"
      ],
      [
        "x",
        "u"
      ],
      [
        "gi",
        "Ã¡"
      ],
      [
        "áº©",
        "m"
      ],
      [
        "f",
        "r"
      ],
      [
        "h",
        "Æ¡n"
      ],
      [
        "n",
        "Æ°á»Ľc"
      ],
      [
        "há»",
        "£p"
      ],
      [
        "in",
        "e"
      ],
      [
        "á»Ļ",
        "c"
      ],
      [
        "Ã¡",
        "y"
      ],
      [
        "s",
        "áº£n"
      ],
      [
        "ģ",
        "n"
      ],
      [
        "áº«",
        "n"
      ],
      [
        "you",
        "r"
      ],
      [
        "k",
        "á»"
      ],
      [
        "m",
        "a"
      ],
      [
        "u",
        "l"
      ],
      [
        "t",
        "in"
      ],
      [
        "w",
        "h"
      ],
      [
        "t",
        "y"
      ],
      [
        "ch",
        "ÃŃnh"
      ],
      [
        "ou",
        "n"
      ],
      [
        "c",
        "an"
      ],
      [
        "áº¥",
        "n"
      ],
      [
        "i",
        "a"
      ],
      [
        "qu",
        "an"
      ],
      [
        "qu",
        "y"
      ],
      [
        "Ãª",
        "m"
      ],
      [
        "t",
        "Ã´i"
      ],
      [
        "uyá»",
        "ĩ"
      ],
      [
        "I",
        "n"
      ],
      [
        "b",
        "y"
      ],
      [
        "á»ĳ",
        "t"
      ],
      [
        "kh",
        "o"
      ],
      [
        "ngh",
        "iá»ĩ"
      ],
      [
        "Äĳá»",
        "ģ"
      ],
      [
        "n",
        "Ãªn"
      ],
      [
        "r",
        "áº¥t"
      ],
      [
        "nh",
        "Ã¢n"
      ],
      [
        "Äĳ",
        "i"
      ],
      [
        "gi",
        "a"
      ],
      [
        "sá»",
        "Ń"
      ],
      [
        "áº£",
        "ng"
      ],
      [
        "áº¿",
        "u"
      ],
      [
        "m",
        "Ã¬nh"
      ],
      [
        "há»",
        "ĩ"
      ],
      [
        "c",
        "ao"
      ],
      [
        "thá»",
        "Ŀi"
      ],
      [
        "ha",
        "ve"
      ],
      [
        "c",
        "Ã¡ch"
      ],
      [
        "c",
        "Ã²n"
      ],
      [
        "w",
        "as"
      ],
      [
        "Æ°",
        "a"
      ],
      [
        "c",
        "Ã¹ng"
      ],
      [
        "es",
        "t"
      ],
      [
        "1",
        "0"
      ],
      [
        "er",
        "e"
      ],
      [
        "om",
        "e"
      ],
      [
        "Æ°á»",
        "Ł"
      ],
      [
        "p",
        "e"
      ],
      [
        "th",
        "áº¿"
      ],
      [
        "Äĳá»ĭ",
        "nh"
      ],
      [
        "th",
        "is"
      ],
      [
        "si",
        "nh"
      ],
      [
        "u",
        "r"
      ],
      [
        "w",
        "or"
      ],
      [
        "the",
        "o"
      ],
      [
        "á»ĳ",
        "n"
      ],
      [
        "c",
        "Æ¡"
      ],
      [
        "thá»",
        "±c"
      ],
      [
        "Æ°á»Ł",
        "ng"
      ],
      [
        "s",
        "au"
      ],
      [
        "Äĳá»ĵ",
        "ng"
      ],
      [
        "á»",
        "į"
      ],
      [
        "iá»ĥ",
        "n"
      ],
      [
        "áº¡",
        "nh"
      ],
      [
        "iá»ĥ",
        "u"
      ],
      [
        "ph",
        "á»"
      ],
      [
        "h",
        "Ã¬nh"
      ],
      [
        "tr",
        "Æ°á»Ŀng"
      ],
      [
        "Äĳ",
        "iá»ģu"
      ],
      [
        "fr",
        "om"
      ],
      [
        "âĢ",
        "¦"
      ],
      [
        "má»",
        "Ľi"
      ],
      [
        "th",
        "Ã´ng"
      ],
      [
        "N",
        "am"
      ],
      [
        "o",
        "p"
      ],
      [
        "i",
        "d"
      ],
      [
        "dá»",
        "±"
      ],
      [
        "á»ķ",
        "i"
      ],
      [
        "gh",
        "t"
      ],
      [
        "nh",
        "á»"
      ],
      [
        "ar",
        "d"
      ],
      [
        "ħ",
        "n"
      ],
      [
        "en",
        "d"
      ],
      [
        "áº¡",
        "ng"
      ],
      [
        "ch",
        "Ãºng"
      ],
      [
        "G",
        "i"
      ],
      [
        "u",
        "p"
      ],
      [
        "kh",
        "Ã¡ch"
      ],
      [
        "ph",
        "áº©m"
      ],
      [
        "n",
        "Äĥng"
      ],
      [
        "s",
        "p"
      ],
      [
        "V",
        "iá»ĩt"
      ],
      [
        "Äĳ",
        "ang"
      ],
      [
        "1",
        "9"
      ],
      [
        "f",
        "e"
      ],
      [
        "l",
        "Æ°á»£ng"
      ],
      [
        "T",
        "há»"
      ],
      [
        "no",
        "t"
      ],
      [
        "ti",
        "c"
      ],
      [
        "w",
        "ill"
      ],
      [
        "d",
        "er"
      ],
      [
        "áº¥",
        "u"
      ],
      [
        "c",
        "áº§n"
      ],
      [
        "an",
        "y"
      ],
      [
        "kh",
        "Ã¡c"
      ],
      [
        "u",
        "m"
      ],
      [
        "K",
        "h"
      ],
      [
        "f",
        "f"
      ],
      [
        "qu",
        "a"
      ],
      [
        "H",
        "o"
      ],
      [
        "nhÆ°",
        "ng"
      ],
      [
        "tr",
        "Ã¬nh"
      ],
      [
        "á»",
        "Ń"
      ],
      [
        "ĩ",
        "nh"
      ],
      [
        "v",
        "iÃªn"
      ],
      [
        "l",
        "Ãªn"
      ],
      [
        "áº£",
        "m"
      ],
      [
        "lá»",
        "Ľ"
      ],
      [
        "ch",
        "áº¥t"
      ],
      [
        "an",
        "t"
      ],
      [
        "c",
        "áº¥p"
      ],
      [
        "m",
        "Ã¡y"
      ],
      [
        "Äĳ",
        "Ã¢y"
      ],
      [
        "áº¯",
        "n"
      ],
      [
        "ph",
        "Ã¡t"
      ],
      [
        "l",
        "Ã½"
      ],
      [
        "am",
        "e"
      ],
      [
        "ÄĲ",
        "á»"
      ],
      [
        "b",
        "iáº¿t"
      ],
      [
        "al",
        "ly"
      ],
      [
        "Ãº",
        "p"
      ],
      [
        "w",
        "n"
      ],
      [
        "ac",
        "k"
      ],
      [
        "ou",
        "ld"
      ],
      [
        "el",
        "l"
      ],
      [
        "uyá»ĩ",
        "n"
      ],
      [
        "į",
        "ng"
      ],
      [
        "nÃ³",
        "i"
      ],
      [
        "n",
        "Ãło"
      ],
      [
        "vá»",
        "¥"
      ],
      [
        "į",
        "n"
      ],
      [
        "h",
        "Ãłnh"
      ],
      [
        "th",
        "o"
      ],
      [
        "nh",
        "áºŃn"
      ],
      [
        "2",
        "1"
      ],
      [
        "xu",
        "áº¥t"
      ],
      [
        "áºŃ",
        "y"
      ],
      [
        "Äĳ",
        "iá»ĥm"
      ],
      [
        "e",
        "ar"
      ],
      [
        "p",
        "or"
      ],
      [
        "Ã³",
        "a"
      ],
      [
        "to",
        "Ãłn"
      ],
      [
        "gi",
        "an"
      ],
      [
        "tá»",
        "±"
      ],
      [
        "Ãº",
        "t"
      ],
      [
        "i",
        "g"
      ],
      [
        "Ã³",
        "ng"
      ],
      [
        "th",
        "iáº¿t"
      ],
      [
        "tr",
        "Æ°á»Ľc"
      ],
      [
        "Ã",
        "¨"
      ],
      [
        "lo",
        "áº¡i"
      ],
      [
        "k",
        "áº¿t"
      ],
      [
        "ar",
        "t"
      ],
      [
        "m",
        "áº·t"
      ],
      [
        "nghiá»ĩ",
        "p"
      ],
      [
        "h",
        "ay"
      ],
      [
        "k",
        "ing"
      ],
      [
        "A",
        "n"
      ],
      [
        "e",
        "w"
      ],
      [
        "t",
        "á»ĳt"
      ],
      [
        "v",
        "Ã¬"
      ],
      [
        "c",
        "i"
      ],
      [
        "gi",
        "Ãºp"
      ],
      [
        "tiáº¿",
        "p"
      ],
      [
        "b",
        "áº£o"
      ],
      [
        "t",
        "áº¡o"
      ],
      [
        "b",
        "o"
      ],
      [
        "g",
        "o"
      ],
      [
        "b",
        "á»Ļ"
      ],
      [
        "s",
        "h"
      ],
      [
        "Äĳ",
        "á»ĳi"
      ],
      [
        "áº¡",
        "ch"
      ],
      [
        "Æ°á»Ľ",
        "ng"
      ],
      [
        "th",
        "áº¥y"
      ],
      [
        "t",
        "áº¿"
      ],
      [
        "it",
        "e"
      ],
      [
        "t",
        "Ã¡c"
      ],
      [
        "áº¯",
        "ng"
      ],
      [
        "h",
        "iá»ĩu"
      ],
      [
        "vá»",
        "ĭ"
      ],
      [
        "b",
        "áº±ng"
      ],
      [
        "thá»",
        "ĭ"
      ],
      [
        "t",
        "Æ°"
      ],
      [
        "g",
        "Ã¬"
      ],
      [
        "c",
        "áº§u"
      ],
      [
        "dá»",
        "ĭch"
      ],
      [
        "i",
        "f"
      ],
      [
        "t",
        "Ã¢m"
      ],
      [
        "áº£",
        "nh"
      ],
      [
        "in",
        "d"
      ],
      [
        "t",
        "ÃŃnh"
      ],
      [
        "a",
        "in"
      ],
      [
        "á»ĵ",
        "i"
      ],
      [
        "g",
        "e"
      ],
      [
        "p",
        "r"
      ],
      [
        "ph",
        "áº§n"
      ],
      [
        "ag",
        "e"
      ],
      [
        "«",
        "a"
      ],
      [
        "chá»",
        "§"
      ],
      [
        "qu",
        "áº£"
      ],
      [
        "d",
        "Ã¢n"
      ],
      [
        "1",
        "2"
      ],
      [
        "bu",
        "t"
      ],
      [
        "ng",
        "o"
      ],
      [
        "t",
        "Ã¬nh"
      ],
      [
        "Ĺ",
        "i"
      ],
      [
        "k",
        "inh"
      ],
      [
        "t",
        "iá»ģn"
      ],
      [
        "Å",
        "©"
      ],
      [
        "ho",
        "áº·c"
      ],
      [
        "d",
        "ay"
      ],
      [
        "n",
        "ay"
      ],
      [
        "h",
        "á»Ļi"
      ],
      [
        "áº¡",
        "c"
      ],
      [
        "h",
        "as"
      ],
      [
        "is",
        "t"
      ],
      [
        "th",
        "Æ°á»Ŀng"
      ],
      [
        "tá»",
        "ķ"
      ],
      [
        "n",
        "á»¯"
      ],
      [
        "b",
        "áº£n"
      ],
      [
        "ic",
        "e"
      ],
      [
        "x",
        "e"
      ],
      [
        "w",
        "hi"
      ],
      [
        "ph",
        "Ã²ng"
      ],
      [
        "ai",
        "l"
      ],
      [
        "nh",
        "iÃªn"
      ],
      [
        "k",
        "s"
      ],
      [
        "Æ°",
        "u"
      ],
      [
        "ph",
        "ÃŃ"
      ],
      [
        "chá»",
        "įn"
      ],
      [
        "b",
        "er"
      ],
      [
        "Äĳ",
        "Æ°á»Ŀng"
      ],
      [
        "ı",
        "i"
      ],
      [
        "d",
        "Ã¹ng"
      ],
      [
        "lá»Ľ",
        "n"
      ],
      [
        "Äĳ",
        "o"
      ],
      [
        "ĥ",
        "n"
      ],
      [
        "p",
        "le"
      ],
      [
        "a",
        "ch"
      ],
      [
        "gi",
        "áº£i"
      ],
      [
        "âĢ",
        "Ļ"
      ],
      [
        "há»",
        "¯"
      ],
      [
        "M",
        "á»"
      ],
      [
        "bá»",
        "ĩnh"
      ],
      [
        "d",
        "a"
      ],
      [
        "áº¹",
        "p"
      ],
      [
        "áº©",
        "n"
      ],
      [
        "thá»",
        "©c"
      ],
      [
        "mo",
        "re"
      ],
      [
        "a",
        "v"
      ],
      [
        "lo",
        "w"
      ],
      [
        "tá»",
        "Ľi"
      ],
      [
        "á»Ļ",
        "ng"
      ],
      [
        "m",
        "y"
      ],
      [
        "uyá»",
        "ĥn"
      ],
      [
        "ab",
        "le"
      ],
      [
        "¯",
        "a"
      ],
      [
        "e",
        "p"
      ],
      [
        "h",
        "ai"
      ],
      [
        "iá»",
        "ħn"
      ],
      [
        "ver",
        "y"
      ],
      [
        "há»",
        "ĵ"
      ],
      [
        "ng",
        "á»"
      ],
      [
        "for",
        "m"
      ],
      [
        "ch",
        "u"
      ],
      [
        "at",
        "ed"
      ],
      [
        "1",
        "1"
      ],
      [
        "m",
        "ang"
      ],
      [
        "giá»",
        "Ľi"
      ],
      [
        "V",
        "á»"
      ],
      [
        "cáº£",
        "m"
      ],
      [
        "Äĳ",
        "iá»ĩn"
      ],
      [
        "kh",
        "u"
      ],
      [
        "Ã¬",
        "m"
      ],
      [
        "s",
        "tr"
      ],
      [
        "v",
        "en"
      ],
      [
        "c",
        "re"
      ],
      [
        "ou",
        "s"
      ],
      [
        "qu",
        "Ã¡"
      ],
      [
        "as",
        "t"
      ],
      [
        "b",
        "le"
      ],
      [
        "trá»",
        "ĭ"
      ],
      [
        "Äĳ",
        "áº¡i"
      ],
      [
        "Ã³",
        "c"
      ],
      [
        "v",
        "áº«n"
      ],
      [
        "ph",
        "Ã¡p"
      ],
      [
        "£",
        "i"
      ],
      [
        "the",
        "y"
      ],
      [
        "s",
        "á»ĳng"
      ],
      [
        "oun",
        "d"
      ],
      [
        "k",
        "áº¿"
      ],
      [
        "t",
        "Äĥng"
      ],
      [
        "ac",
        "e"
      ],
      [
        "tr",
        "ang"
      ],
      [
        "w",
        "ay"
      ],
      [
        "s",
        "er"
      ],
      [
        "v",
        "áºŃy"
      ],
      [
        "y",
        "Ãªu"
      ],
      [
        "c",
        "t"
      ],
      [
        "d",
        "es"
      ],
      [
        "Æ°",
        "ng"
      ],
      [
        "kh",
        "á»"
      ],
      [
        "ch",
        "i"
      ],
      [
        "Ã¡",
        "m"
      ],
      [
        "áº§",
        "m"
      ],
      [
        "an",
        "s"
      ],
      [
        "g",
        "et"
      ],
      [
        "chá»",
        "©c"
      ],
      [
        "the",
        "ir"
      ],
      [
        "tr",
        "iá»ĥn"
      ],
      [
        "ec",
        "t"
      ],
      [
        "th",
        "Ã¡ng"
      ],
      [
        "s",
        "ome"
      ],
      [
        "u",
        "t"
      ],
      [
        "áº",
        "³"
      ],
      [
        "g",
        "r"
      ],
      [
        "trá»",
        "įng"
      ],
      [
        "t",
        "Ãłi"
      ],
      [
        "t",
        "ay"
      ],
      [
        "c",
        "Ã¡i"
      ],
      [
        "an",
        "ce"
      ],
      [
        "u",
        "st"
      ],
      [
        "d",
        "Æ°á»"
      ],
      [
        "ou",
        "gh"
      ],
      [
        "o",
        "re"
      ],
      [
        "i",
        "es"
      ],
      [
        "Ã",
        "µ"
      ],
      [
        "Äĳ",
        "áº¹p"
      ],
      [
        "b",
        "Ãłi"
      ],
      [
        "Äĳá»",
        "ķ"
      ],
      [
        "l",
        "l"
      ],
      [
        "ho",
        "w"
      ],
      [
        "si",
        "on"
      ],
      [
        "do",
        "anh"
      ],
      [
        "l",
        "ine"
      ],
      [
        "mu",
        "á»ĳn"
      ],
      [
        "thá»",
        "§"
      ],
      [
        "t",
        "áºŃp"
      ],
      [
        "á»",
        "©ng"
      ],
      [
        "00",
        "0"
      ],
      [
        "«",
        "ng"
      ],
      [
        "ti",
        "ve"
      ],
      [
        "c",
        "Ã´"
      ],
      [
        "ch",
        "Æ¡i"
      ],
      [
        "uyá»",
        "ģn"
      ],
      [
        "b",
        "ao"
      ],
      [
        "iá»ĩ",
        "m"
      ],
      [
        "W",
        "e"
      ],
      [
        "no",
        "w"
      ],
      [
        "C",
        "Ã´ng"
      ],
      [
        "d",
        "is"
      ],
      [
        "Qu",
        "á»ĳc"
      ],
      [
        "th",
        "Ãªm"
      ],
      [
        "b",
        "iá»ĩt"
      ],
      [
        "en",
        "ce"
      ],
      [
        "I",
        "t"
      ],
      [
        "ti",
        "Ãªu"
      ],
      [
        "it",
        "s"
      ],
      [
        "of",
        "f"
      ],
      [
        "l",
        "iÃªn"
      ],
      [
        "th",
        "Æ°Æ¡ng"
      ],
      [
        "tion",
        "s"
      ],
      [
        "ar",
        "y"
      ],
      [
        "h",
        "Ã³a"
      ],
      [
        "ī",
        "nh"
      ],
      [
        "á»",
        "ģn"
      ],
      [
        "por",
        "t"
      ],
      [
        "p",
        "s"
      ],
      [
        "trá»",
        "Ł"
      ],
      [
        "1",
        "5"
      ],
      [
        "cá»",
        "©"
      ],
      [
        "th",
        "á»ĳng"
      ],
      [
        "as",
        "s"
      ],
      [
        "T",
        "á»"
      ],
      [
        "N",
        "G"
      ],
      [
        "R",
        "e"
      ],
      [
        "oo",
        "d"
      ],
      [
        "ng",
        "há»"
      ],
      [
        "p",
        "re"
      ],
      [
        "ti",
        "me"
      ],
      [
        "ab",
        "out"
      ],
      [
        "ho",
        "áº¡t"
      ],
      [
        "b",
        "Ãªn"
      ],
      [
        "Äĳá»ģ",
        "u"
      ],
      [
        "3",
        "0"
      ],
      [
        "l",
        "áº§n"
      ],
      [
        "t",
        "Ã¬m"
      ],
      [
        "2",
        "2"
      ],
      [
        "nh",
        "au"
      ],
      [
        "ho",
        "Ãłn"
      ],
      [
        "20",
        "21"
      ],
      [
        "f",
        "i"
      ],
      [
        "ngh",
        "Ä©"
      ],
      [
        "f",
        "ul"
      ],
      [
        "lá»",
        "±c"
      ],
      [
        "whi",
        "ch"
      ],
      [
        "mu",
        "a"
      ],
      [
        "cu",
        "á»Ļc"
      ],
      [
        "as",
        "e"
      ],
      [
        "Tr",
        "ung"
      ],
      [
        "b",
        "l"
      ],
      [
        "o",
        "ther"
      ],
      [
        "Äĳ",
        "Æ¡n"
      ],
      [
        "m",
        "an"
      ],
      [
        "b",
        "Ã¡n"
      ],
      [
        "th",
        "ing"
      ],
      [
        "ne",
        "w"
      ],
      [
        "s",
        "ao"
      ],
      [
        "áºŃ",
        "u"
      ],
      [
        "d",
        "ing"
      ],
      [
        "ph",
        "Æ°Æ¡ng"
      ],
      [
        "áº§",
        "y"
      ],
      [
        "tr",
        "ÃŃ"
      ],
      [
        "is",
        "h"
      ],
      [
        "c",
        "k"
      ],
      [
        "áº¡",
        "m"
      ],
      [
        "Tr",
        "ong"
      ],
      [
        "áº³",
        "ng"
      ],
      [
        "C",
        "há»"
      ],
      [
        "H",
        "Ãł"
      ],
      [
        "r",
        "áº±ng"
      ],
      [
        "l",
        "iá»ĩu"
      ],
      [
        "20",
        "0"
      ],
      [
        "iáº¿",
        "u"
      ],
      [
        "v",
        "áº¥n"
      ],
      [
        "el",
        "y"
      ],
      [
        "Äĳá»ĭ",
        "a"
      ],
      [
        "re",
        "e"
      ],
      [
        "gi",
        "ao"
      ],
      [
        "w",
        "ho"
      ],
      [
        "Äĳá»ķ",
        "i"
      ],
      [
        "tr",
        "ung"
      ],
      [
        "d",
        "áº«n"
      ],
      [
        "th",
        "i"
      ],
      [
        "th",
        "Ã¢n"
      ],
      [
        "chá»",
        "ĭ"
      ],
      [
        "Ã¬",
        "n"
      ],
      [
        "±",
        "a"
      ],
      [
        "áº¯",
        "m"
      ],
      [
        "tiáº¿",
        "ng"
      ],
      [
        "b",
        "áº¥t"
      ],
      [
        "C",
        "Ã¡c"
      ],
      [
        "r",
        "á»ĵi"
      ],
      [
        "giá»",
        "Ŀ"
      ],
      [
        "i",
        "z"
      ],
      [
        "p",
        "ar"
      ],
      [
        "m",
        "ay"
      ],
      [
        "Ã©",
        "t"
      ],
      [
        "má»",
        "į"
      ],
      [
        "b",
        "Ã¡o"
      ],
      [
        "m",
        "in"
      ],
      [
        "al",
        "so"
      ],
      [
        "uy",
        "áº¿n"
      ],
      [
        "ch",
        "áº¿"
      ],
      [
        "o",
        "ver"
      ],
      [
        "th",
        "am"
      ],
      [
        "t",
        "ÃŃch"
      ],
      [
        "s",
        "Ã¡ng"
      ],
      [
        "á»ĵ",
        "ng"
      ],
      [
        "Äĳ",
        "Ã¡nh"
      ],
      [
        "y",
        "ear"
      ],
      [
        "ation",
        "s"
      ],
      [
        "in",
        "ter"
      ],
      [
        "ac",
        "t"
      ],
      [
        "qu",
        "á»ĳc"
      ],
      [
        "x",
        "em"
      ],
      [
        "wor",
        "k"
      ],
      [
        "Ã©",
        "p"
      ],
      [
        "áº¥",
        "m"
      ],
      [
        "tr",
        "a"
      ],
      [
        "ent",
        "s"
      ],
      [
        "h",
        "is"
      ],
      [
        "áº±",
        "m"
      ],
      [
        "sá»",
        "Ł"
      ],
      [
        "sá»",
        "©c"
      ],
      [
        "lu",
        "Ã´n"
      ],
      [
        "h",
        "Ã£"
      ],
      [
        "thá»",
        "©"
      ],
      [
        "ch",
        "uyÃªn"
      ],
      [
        "áº¯",
        "p"
      ],
      [
        "n",
        "áº¿u"
      ],
      [
        "com",
        "p"
      ],
      [
        "ngo",
        "Ãłi"
      ],
      [
        "ÃŃ",
        "n"
      ],
      [
        "Th",
        "is"
      ],
      [
        "vá»",
        "«a"
      ],
      [
        "cá»",
        "Ń"
      ],
      [
        "tr",
        "áº»"
      ],
      [
        "re",
        "d"
      ],
      [
        "Äĳ",
        "áº·t"
      ],
      [
        "c",
        "Ã¡"
      ],
      [
        "Äĳ",
        "áº·c"
      ],
      [
        "b",
        "an"
      ],
      [
        "á»ĵ",
        "n"
      ],
      [
        "th",
        "ÃŃch"
      ],
      [
        "gi",
        "áº£m"
      ],
      [
        "T",
        "o"
      ],
      [
        "1",
        "8"
      ],
      [
        "ch",
        "uyá»ĥn"
      ],
      [
        "ch",
        "Æ°a"
      ],
      [
        "cu",
        "ng"
      ],
      [
        "m",
        "áº¯t"
      ],
      [
        "nhá»",
        "ı"
      ],
      [
        "n",
        "i"
      ],
      [
        "oo",
        "k"
      ],
      [
        "má»į",
        "i"
      ],
      [
        "v",
        "Äĥn"
      ],
      [
        "a",
        "k"
      ],
      [
        "âĢ",
        "ľ"
      ],
      [
        "kh",
        "Ã³"
      ],
      [
        "th",
        "an"
      ],
      [
        "li",
        "ke"
      ],
      [
        "A",
        "nh"
      ],
      [
        "âĢ",
        "Ŀ"
      ],
      [
        "o",
        "b"
      ],
      [
        "m",
        "áº¡nh"
      ],
      [
        "l",
        "Ãºc"
      ],
      [
        "v",
        "áºŃt"
      ],
      [
        "c",
        "l"
      ],
      [
        "Äĳ",
        "áº¥t"
      ],
      [
        "dá»",
        "ħ"
      ],
      [
        "m",
        "er"
      ],
      [
        "n",
        "am"
      ],
      [
        "t",
        "en"
      ],
      [
        "mÃł",
        "u"
      ],
      [
        "b",
        "iáº¿n"
      ],
      [
        "ic",
        "k"
      ],
      [
        "m",
        "ar"
      ],
      [
        "b",
        "áº¯t"
      ],
      [
        "C",
        "on"
      ],
      [
        "c",
        "lu"
      ],
      [
        "ká»",
        "³"
      ],
      [
        "N",
        "o"
      ],
      [
        "a",
        "f"
      ],
      [
        "we",
        "b"
      ],
      [
        "ther",
        "e"
      ],
      [
        "x",
        "Ã£"
      ],
      [
        "Ã²",
        "a"
      ],
      [
        "m",
        "i"
      ],
      [
        "ng",
        "há»ĩ"
      ],
      [
        "h",
        "er"
      ],
      [
        "i",
        "al"
      ],
      [
        "re",
        "n"
      ],
      [
        "or",
        "s"
      ],
      [
        "trá»",
        "£"
      ],
      [
        "áº«",
        "u"
      ],
      [
        "nh",
        "anh"
      ],
      [
        "h",
        "Æ°á»Ľng"
      ],
      [
        "5",
        "0"
      ],
      [
        "Ł",
        "i"
      ],
      [
        "D",
        "o"
      ],
      [
        "tu",
        "á»ķi"
      ],
      [
        "ng",
        "ay"
      ],
      [
        "v",
        "es"
      ],
      [
        "quy",
        "áº¿t"
      ],
      [
        "ti",
        "áº¿t"
      ],
      [
        "lá»",
        "ĭch"
      ],
      [
        "N",
        "áº¿u"
      ],
      [
        "Äĳ",
        "Ã¡"
      ],
      [
        "áº·",
        "p"
      ],
      [
        "c",
        "tion"
      ],
      [
        "W",
        "h"
      ],
      [
        "n",
        "á»Ļi"
      ],
      [
        "i",
        "e"
      ],
      [
        "į",
        "c"
      ],
      [
        "l",
        "a"
      ],
      [
        "wh",
        "en"
      ],
      [
        "r",
        "y"
      ],
      [
        "the",
        "m"
      ],
      [
        "ph",
        "Ã¢n"
      ],
      [
        "s",
        "ai"
      ],
      [
        "1",
        "6"
      ],
      [
        "b",
        "Ã¬nh"
      ],
      [
        "c",
        "or"
      ],
      [
        "in",
        "k"
      ],
      [
        "dá»±",
        "ng"
      ],
      [
        "Ã´",
        "m"
      ],
      [
        "ch",
        "iáº¿"
      ],
      [
        "p",
        "res"
      ],
      [
        "áº·",
        "ng"
      ],
      [
        "n",
        "Æ¡i"
      ],
      [
        "ti",
        "m"
      ],
      [
        "r",
        "á»"
      ],
      [
        "Y",
        "ou"
      ],
      [
        "ne",
        "ed"
      ],
      [
        "c",
        "ol"
      ],
      [
        "ho",
        "a"
      ],
      [
        "nghiá»ĩ",
        "m"
      ],
      [
        "at",
        "er"
      ],
      [
        "wh",
        "at"
      ],
      [
        "tá»",
        "īnh"
      ],
      [
        "1",
        "4"
      ],
      [
        "b",
        "r"
      ],
      [
        "H",
        "á»"
      ],
      [
        "be",
        "en"
      ],
      [
        "t",
        "t"
      ],
      [
        "u",
        "e"
      ],
      [
        "nh",
        "Ã¬n"
      ],
      [
        "Ã£",
        "i"
      ],
      [
        "b",
        "Ã³ng"
      ],
      [
        "tá»",
        "¥c"
      ],
      [
        "v",
        "Ã´"
      ],
      [
        "g",
        "ame"
      ],
      [
        "trá»",
        "±c"
      ],
      [
        "phá»",
        "¥c"
      ],
      [
        "h",
        "áº¿t"
      ],
      [
        "h",
        "el"
      ],
      [
        "kh",
        "iáº¿n"
      ],
      [
        "phá»",
        "¥"
      ],
      [
        "ÃŃ",
        "t"
      ],
      [
        "g",
        "áº§n"
      ],
      [
        "j",
        "ust"
      ],
      [
        "N",
        "á»Ļi"
      ],
      [
        "c",
        "ess"
      ],
      [
        "2",
        "4"
      ],
      [
        "o",
        "d"
      ],
      [
        "ti",
        "Ãªn"
      ],
      [
        "bá»",
        "Łi"
      ],
      [
        "thu",
        "áºŃt"
      ],
      [
        "x",
        "Ã¢y"
      ],
      [
        "tá»",
        "Ń"
      ],
      [
        "b",
        "Ãłn"
      ],
      [
        "ph",
        "á»ĳ"
      ],
      [
        "g",
        "á»į"
      ],
      [
        "h",
        "á»Ļ"
      ],
      [
        "i",
        "p"
      ],
      [
        "n",
        "ing"
      ],
      [
        "g",
        "Ã¢y"
      ],
      [
        "Äĳ",
        "Ã¬nh"
      ],
      [
        "w",
        "ould"
      ],
      [
        "th",
        "áºŃt"
      ],
      [
        "th",
        "ay"
      ],
      [
        "ch",
        "iáº¿n"
      ],
      [
        "com",
        "m"
      ],
      [
        "l",
        "áºŃp"
      ],
      [
        "s",
        "to"
      ],
      [
        "th",
        "anh"
      ],
      [
        "ta",
        "in"
      ],
      [
        "Äĳá»Ļ",
        "i"
      ],
      [
        "Ã",
        "ģ"
      ],
      [
        "h",
        "ad"
      ],
      [
        "Äĳ",
        "áº¡o"
      ],
      [
        "0",
        "6"
      ],
      [
        "tá»«",
        "ng"
      ],
      [
        "lo",
        "g"
      ],
      [
        "1",
        "3"
      ],
      [
        "lá»",
        "£i"
      ],
      [
        "t",
        "w"
      ],
      [
        "s",
        "ite"
      ],
      [
        "T",
        "ra"
      ],
      [
        "tr",
        "y"
      ],
      [
        "M",
        "á»Ļt"
      ],
      [
        "v",
        "ing"
      ],
      [
        "bá»",
        "ı"
      ],
      [
        "m",
        "áº¹"
      ],
      [
        "b",
        "a"
      ],
      [
        "s",
        "Ã¡ch"
      ],
      [
        "áº¡",
        "y"
      ],
      [
        "t",
        "Æ°á»£ng"
      ],
      [
        "chá»",
        "©ng"
      ],
      [
        "Má»",
        "¹"
      ],
      [
        "or",
        "y"
      ],
      [
        "u",
        "se"
      ],
      [
        "Äĳ",
        "Æ°a"
      ],
      [
        "ti",
        "es"
      ],
      [
        "vá»",
        "±c"
      ],
      [
        "s",
        "s"
      ],
      [
        "v",
        "u"
      ],
      [
        "o",
        "k"
      ],
      [
        "Äĳá»",
        "§"
      ],
      [
        "lá»",
        "Ŀi"
      ],
      [
        "re",
        "ad"
      ],
      [
        "i",
        "on"
      ],
      [
        "uyá»",
        "ħn"
      ],
      [
        "S",
        "t"
      ],
      [
        "ti",
        "nh"
      ],
      [
        "b",
        "Ã©"
      ],
      [
        "d",
        "iá»ĩn"
      ],
      [
        "h",
        "iá»ĥu"
      ],
      [
        "ná»¯",
        "a"
      ],
      [
        "k",
        "iáº¿n"
      ],
      [
        "c",
        "a"
      ],
      [
        "f",
        "ir"
      ],
      [
        "mo",
        "st"
      ],
      [
        "má»",
        "Ĺi"
      ],
      [
        "H",
        "e"
      ],
      [
        "ng",
        "uyÃªn"
      ],
      [
        "v",
        "iáº¿t"
      ],
      [
        "vi",
        "ew"
      ],
      [
        "be",
        "t"
      ],
      [
        "cá»",
        "ķ"
      ],
      [
        "vá»",
        "ĩ"
      ],
      [
        "w",
        "ere"
      ],
      [
        "s",
        "Ä©"
      ],
      [
        "V",
        "i"
      ],
      [
        "áº£",
        "y"
      ],
      [
        "cá»Ń",
        "a"
      ],
      [
        "tr",
        "uyá»ģn"
      ],
      [
        "M",
        "ar"
      ],
      [
        "¡",
        "ng"
      ],
      [
        "tr",
        "e"
      ],
      [
        "t",
        "áº¥t"
      ],
      [
        "C",
        "om"
      ],
      [
        "má»",
        "©c"
      ],
      [
        "tr",
        "iá»ĩu"
      ],
      [
        "v",
        "is"
      ],
      [
        "T",
        "P"
      ],
      [
        "kho",
        "áº£ng"
      ],
      [
        "1",
        "7"
      ],
      [
        "Ãª",
        "ng"
      ],
      [
        "ap",
        "p"
      ],
      [
        "op",
        "le"
      ],
      [
        "Ã¹",
        "a"
      ],
      [
        "2",
        "5"
      ],
      [
        "l",
        "Ã²ng"
      ],
      [
        "s",
        "áº¯c"
      ],
      [
        "d",
        "iá»ħn"
      ],
      [
        "C",
        "Ã³"
      ],
      [
        "c",
        "ar"
      ],
      [
        "há»¯",
        "ng"
      ],
      [
        "c",
        "es"
      ],
      [
        "L",
        "o"
      ],
      [
        "uyá»ĩ",
        "t"
      ],
      [
        "lá»",
        "±a"
      ],
      [
        "kh",
        "ai"
      ],
      [
        "20",
        "20"
      ],
      [
        "quy",
        "á»ģn"
      ],
      [
        "F",
        "or"
      ],
      [
        "L",
        "á»"
      ],
      [
        "N",
        "há»¯ng"
      ],
      [
        "U",
        "S"
      ],
      [
        "B",
        "á»Ļ"
      ],
      [
        "c",
        "oun"
      ],
      [
        "Ng",
        "uyá»ħn"
      ],
      [
        "in",
        "to"
      ],
      [
        "Æ°á»£",
        "t"
      ],
      [
        "B",
        "áº¡n"
      ],
      [
        "dÆ°á»",
        "Ľi"
      ],
      [
        "ti",
        "áº¿n"
      ],
      [
        "u",
        "re"
      ],
      [
        "T",
        "uy"
      ],
      [
        "S",
        "au"
      ],
      [
        "Ä©",
        "nh"
      ],
      [
        "nh",
        "áºŃp"
      ],
      [
        "g",
        "re"
      ],
      [
        "ph",
        "ong"
      ],
      [
        "c",
        "au"
      ],
      [
        "t",
        "Ãªn"
      ],
      [
        "b",
        "ack"
      ],
      [
        "c",
        "al"
      ],
      [
        "n",
        "á»"
      ],
      [
        "v",
        "ed"
      ],
      [
        "f",
        "in"
      ],
      [
        "Kh",
        "Ã´ng"
      ],
      [
        "á»ĵ",
        "m"
      ],
      [
        "u",
        "d"
      ],
      [
        "C",
        "o"
      ],
      [
        "cáº£",
        "nh"
      ],
      [
        "c",
        "am"
      ],
      [
        "pl",
        "ay"
      ],
      [
        "d",
        "Ãłi"
      ],
      [
        "t",
        "Æ°Æ¡ng"
      ],
      [
        "l",
        "ar"
      ],
      [
        "thu",
        "á»Ļc"
      ],
      [
        "w",
        "ell"
      ],
      [
        "s",
        "Ã¡t"
      ],
      [
        "ch",
        "á»ĳng"
      ],
      [
        "at",
        "es"
      ],
      [
        "há»",
        "Ĺ"
      ],
      [
        "Äĳ",
        "áº¥u"
      ],
      [
        "k",
        "iá»ĩn"
      ],
      [
        "Vá»",
        "Ľi"
      ],
      [
        "tá»",
        "·"
      ],
      [
        "chu",
        "áº©n"
      ],
      [
        "á»į",
        "c"
      ],
      [
        "giá»",
        "¯a"
      ],
      [
        "Ã¡",
        "u"
      ],
      [
        "Ã³",
        "n"
      ],
      [
        "b",
        "i"
      ],
      [
        "in",
        "t"
      ],
      [
        "n",
        "á»ķi"
      ],
      [
        "©",
        "a"
      ],
      [
        "g",
        "á»ĵm"
      ],
      [
        "má»",
        "¥c"
      ],
      [
        "há»¯",
        "u"
      ],
      [
        "ad",
        "e"
      ],
      [
        "u",
        "á»ĵn"
      ],
      [
        "Äĳ",
        "a"
      ],
      [
        "Äĳ",
        "áº£m"
      ],
      [
        "N",
        "H"
      ],
      [
        "0",
        "9"
      ],
      [
        "ma",
        "ke"
      ],
      [
        "gi",
        "Ã¡o"
      ],
      [
        "kh",
        "ÃŃ"
      ],
      [
        "x",
        "Ã¡c"
      ],
      [
        "L",
        "e"
      ],
      [
        "pe",
        "ople"
      ],
      [
        "ic",
        "al"
      ],
      [
        "B",
        "Ã¬nh"
      ],
      [
        "g",
        "en"
      ],
      [
        "cá»©",
        "u"
      ],
      [
        "K",
        "hi"
      ],
      [
        "ch",
        "uyá»ĩn"
      ],
      [
        "h",
        "áº¡n"
      ],
      [
        "tu",
        "r"
      ],
      [
        "áº¿",
        "p"
      ],
      [
        "chiáº¿",
        "c"
      ],
      [
        "t",
        "ÃŃn"
      ],
      [
        "f",
        "ore"
      ],
      [
        "p",
        "p"
      ],
      [
        "ch",
        "ia"
      ],
      [
        "c",
        "er"
      ],
      [
        "ch",
        "Ã¢n"
      ],
      [
        "s",
        "y"
      ],
      [
        "pro",
        "du"
      ],
      [
        "há»",
        "ıi"
      ],
      [
        "P",
        "o"
      ],
      [
        "m",
        "on"
      ],
      [
        "cu",
        "r"
      ],
      [
        "c",
        "Ã¢u"
      ],
      [
        "kh",
        "áº£"
      ],
      [
        "d",
        "s"
      ],
      [
        "c",
        "Ã¢y"
      ],
      [
        "ment",
        "s"
      ],
      [
        "iáº¿",
        "m"
      ],
      [
        "ig",
        "n"
      ],
      [
        "m",
        "ed"
      ],
      [
        "d",
        "on"
      ],
      [
        "ĵ",
        "ng"
      ],
      [
        "y",
        "áº¿u"
      ],
      [
        "r",
        "ough"
      ],
      [
        "D",
        "á»"
      ],
      [
        "Ã",
        "Ķ"
      ],
      [
        "ch",
        "ung"
      ],
      [
        "ch",
        "ÃŃ"
      ],
      [
        "v",
        "al"
      ],
      [
        "2",
        "3"
      ],
      [
        "L",
        "i"
      ],
      [
        "T",
        "H"
      ],
      [
        "má»",
        "Ł"
      ],
      [
        "The",
        "o"
      ],
      [
        "Äĳ",
        "Ãºng"
      ],
      [
        "Äĳ",
        "áº§y"
      ],
      [
        "qu",
        "áº£n"
      ],
      [
        "Äĳá»",
        "Ŀi"
      ],
      [
        "N",
        "ew"
      ],
      [
        "P",
        "ro"
      ],
      [
        "cá»",
        "±c"
      ],
      [
        "nh",
        "u"
      ],
      [
        "m",
        "s"
      ],
      [
        "g",
        "Ã³"
      ],
      [
        "m",
        "inh"
      ],
      [
        "r",
        "u"
      ],
      [
        "tr",
        "i"
      ],
      [
        "g",
        "áº·p"
      ],
      [
        "on",
        "ly"
      ],
      [
        "c",
        "Ãłng"
      ],
      [
        "k",
        "now"
      ],
      [
        "ai",
        "r"
      ],
      [
        "l",
        "es"
      ],
      [
        "k",
        "iá»ĥm"
      ],
      [
        "ph",
        "Ã¹"
      ],
      [
        "l",
        "Ã£"
      ],
      [
        "em",
        "ent"
      ],
      [
        "hi",
        "gh"
      ],
      [
        "I",
        "f"
      ],
      [
        "en",
        "ti"
      ],
      [
        "ká»",
        "¹"
      ],
      [
        "n",
        "et"
      ],
      [
        "t",
        "á»ĳi"
      ],
      [
        "b",
        "ook"
      ],
      [
        "in",
        "clu"
      ],
      [
        "gá»į",
        "i"
      ],
      [
        "V",
        "Äĥn"
      ],
      [
        "S",
        "o"
      ],
      [
        "thu",
        "á»ĳc"
      ],
      [
        "uy",
        "áº¿t"
      ],
      [
        "g",
        "ra"
      ],
      [
        "vi",
        "de"
      ],
      [
        "se",
        "e"
      ],
      [
        "An",
        "d"
      ],
      [
        "m",
        "áº«u"
      ],
      [
        "g",
        "á»"
      ],
      [
        "hel",
        "p"
      ],
      [
        "g",
        "n"
      ],
      [
        "c",
        "áº¡nh"
      ],
      [
        "m",
        "áº¥t"
      ],
      [
        "l",
        "Æ°u"
      ],
      [
        "A",
        "l"
      ],
      [
        "201",
        "9"
      ],
      [
        "po",
        "s"
      ],
      [
        "d",
        "ung"
      ],
      [
        "nghÄ©",
        "a"
      ],
      [
        "Ng",
        "o"
      ],
      [
        "1",
        "00"
      ],
      [
        "fir",
        "st"
      ],
      [
        "201",
        "8"
      ],
      [
        "r",
        "Ãµ"
      ],
      [
        "u",
        "á»ĳng"
      ],
      [
        "to",
        "p"
      ],
      [
        "k",
        "Ã½"
      ],
      [
        "al",
        "s"
      ],
      [
        "Ãł",
        "u"
      ],
      [
        "c",
        "y"
      ],
      [
        "ol",
        "d"
      ],
      [
        "ÄĲ",
        "áº¡i"
      ],
      [
        "t",
        "ed"
      ],
      [
        "tu",
        "re"
      ],
      [
        "h",
        "Æ°á»Łng"
      ],
      [
        "nh",
        "iá»ĩm"
      ],
      [
        "th",
        "rough"
      ],
      [
        "T",
        "á»ķ"
      ],
      [
        "M",
        "inh"
      ],
      [
        "ser",
        "v"
      ],
      [
        "un",
        "der"
      ],
      [
        "w",
        "er"
      ],
      [
        "e",
        "very"
      ],
      [
        "c",
        "Äĥn"
      ],
      [
        "g",
        "an"
      ],
      [
        "Ã¢",
        "ng"
      ],
      [
        "tr",
        "áºŃn"
      ],
      [
        "Äĳ",
        "áº¡t"
      ],
      [
        "Nh",
        "Ãł"
      ],
      [
        "Ãł",
        "m"
      ],
      [
        "do",
        "wn"
      ],
      [
        "b",
        "Ãł"
      ],
      [
        "in",
        "ess"
      ],
      [
        "s",
        "ang"
      ],
      [
        "áºŃ",
        "m"
      ],
      [
        "m",
        "áº¡ng"
      ],
      [
        "t",
        "al"
      ],
      [
        "Æ°Æ¡",
        "i"
      ],
      [
        "qu",
        "Ã½"
      ],
      [
        "il",
        "d"
      ],
      [
        "á»Ń",
        "a"
      ],
      [
        "u",
        "c"
      ],
      [
        "giá»",
        "¯"
      ],
      [
        "com",
        "e"
      ],
      [
        "sai",
        "d"
      ],
      [
        "di",
        "ff"
      ],
      [
        "l",
        "áº¥y"
      ],
      [
        "su",
        "r"
      ],
      [
        "on",
        "line"
      ],
      [
        "a",
        "ti"
      ],
      [
        "N",
        "D"
      ],
      [
        "ro",
        "w"
      ],
      [
        "ic",
        "es"
      ],
      [
        "a",
        "w"
      ],
      [
        "hÃ£",
        "y"
      ],
      [
        "s",
        "ti"
      ],
      [
        "A",
        "r"
      ],
      [
        "wh",
        "ere"
      ],
      [
        "l",
        "and"
      ],
      [
        "R",
        "o"
      ],
      [
        "r",
        "á»Ļng"
      ],
      [
        "cá»",
        "¥"
      ],
      [
        "c",
        "Ã¡o"
      ],
      [
        "s",
        "ing"
      ],
      [
        "the",
        "se"
      ],
      [
        "per",
        "i"
      ],
      [
        "Äĳ",
        "Äĥng"
      ],
      [
        "c",
        "ed"
      ],
      [
        "ı",
        "e"
      ],
      [
        "tr",
        "Ã²"
      ],
      [
        "tr",
        "anh"
      ],
      [
        "d",
        "áº¡ng"
      ],
      [
        "th",
        "Æ°"
      ],
      [
        "v",
        "áºŃn"
      ],
      [
        "d",
        "anh"
      ],
      [
        "ng",
        "uá»ĵn"
      ],
      [
        "gi",
        "áº£"
      ],
      [
        "áº©",
        "u"
      ],
      [
        "C",
        "á»"
      ],
      [
        "t",
        "iá»ĩn"
      ],
      [
        "O",
        "n"
      ],
      [
        "k",
        "Ã©"
      ],
      [
        "Ã³",
        "m"
      ],
      [
        "g",
        "u"
      ],
      [
        "m",
        "any"
      ],
      [
        "ng",
        "hi"
      ],
      [
        "kh",
        "Ã¡"
      ],
      [
        "tr",
        "áº£"
      ],
      [
        "d",
        "Ã¹"
      ],
      [
        "ar",
        "i"
      ],
      [
        "T",
        "Ã´i"
      ],
      [
        "p",
        "ers"
      ],
      [
        "Ng",
        "Æ°á»Ŀi"
      ],
      [
        "c",
        "ent"
      ],
      [
        "s",
        "ho"
      ],
      [
        "tho",
        "áº¡i"
      ],
      [
        "Äĳá»Ļ",
        "c"
      ],
      [
        "b",
        "iá»ĥu"
      ],
      [
        "S",
        "e"
      ],
      [
        "is",
        "e"
      ],
      [
        "b",
        "us"
      ],
      [
        "f",
        "un"
      ],
      [
        "khá»",
        "ıe"
      ],
      [
        "the",
        "n"
      ],
      [
        "ng",
        "Ãłnh"
      ],
      [
        "ÄĲ",
        "Ã¢y"
      ],
      [
        "g",
        "ood"
      ],
      [
        "w",
        "w"
      ],
      [
        "t",
        "Æ°á»Łng"
      ],
      [
        "ver",
        "s"
      ],
      [
        "tá»ķ",
        "ng"
      ],
      [
        "tr",
        "Æ°á»Łng"
      ],
      [
        "b",
        "á»ĳ"
      ],
      [
        "dÆ°á»",
        "¡ng"
      ],
      [
        "em",
        "ber"
      ],
      [
        "s",
        "ay"
      ],
      [
        "p",
        "u"
      ],
      [
        "xu",
        "á»ĳng"
      ],
      [
        "C",
        "M"
      ],
      [
        "Th",
        "anh"
      ],
      [
        "il",
        "y"
      ],
      [
        "th",
        "áº§n"
      ],
      [
        "A",
        "s"
      ],
      [
        "n",
        "u"
      ],
      [
        "sp",
        "ec"
      ],
      [
        "Ã¨",
        "o"
      ],
      [
        "e",
        "f"
      ],
      [
        "c",
        "ri"
      ],
      [
        "Ch",
        "ÃŃnh"
      ],
      [
        "t",
        "on"
      ],
      [
        "vu",
        "i"
      ],
      [
        "cau",
        "se"
      ],
      [
        "en",
        "s"
      ],
      [
        "d",
        "ed"
      ],
      [
        "v",
        "Ã¹ng"
      ],
      [
        "i",
        "de"
      ],
      [
        "af",
        "ter"
      ],
      [
        "ex",
        "t"
      ],
      [
        "phÃŃ",
        "a"
      ],
      [
        "lá»",
        "ĩ"
      ],
      [
        "áº",
        "µ"
      ],
      [
        "l",
        "ess"
      ],
      [
        "Äĳo",
        "Ãłn"
      ],
      [
        "C",
        "H"
      ],
      [
        "tr",
        "áº¡ng"
      ],
      [
        "ri",
        "Ãªng"
      ],
      [
        "Äĳ",
        "Ã¡ng"
      ],
      [
        "tw",
        "o"
      ],
      [
        "or",
        "t"
      ],
      [
        "a",
        "ting"
      ],
      [
        "áº¡",
        "p"
      ],
      [
        "c",
        "á»ĳ"
      ],
      [
        "Th",
        "Ãłnh"
      ],
      [
        "re",
        "qu"
      ],
      [
        "201",
        "7"
      ],
      [
        "ph",
        "im"
      ],
      [
        "tá»",
        "©c"
      ],
      [
        "b",
        "ay"
      ],
      [
        "ch",
        "Ãº"
      ],
      [
        "w",
        "ant"
      ],
      [
        "al",
        "th"
      ],
      [
        "c",
        "ould"
      ],
      [
        "p",
        "art"
      ],
      [
        "ch",
        "áº¯c"
      ],
      [
        "se",
        "t"
      ],
      [
        "s",
        "he"
      ],
      [
        "l",
        "ong"
      ],
      [
        "st",
        "em"
      ],
      [
        "i",
        "re"
      ],
      [
        "st",
        "and"
      ],
      [
        "c",
        "as"
      ],
      [
        "cu",
        "á»ĳi"
      ],
      [
        "iá»ĩ",
        "p"
      ],
      [
        "at",
        "ch"
      ],
      [
        "ngh",
        "e"
      ],
      [
        "t",
        "uyáº¿n"
      ],
      [
        "e",
        "v"
      ],
      [
        "ri",
        "ght"
      ],
      [
        "8",
        "8"
      ],
      [
        "Nh",
        "Æ°ng"
      ],
      [
        "áº©",
        "y"
      ],
      [
        "d",
        "el"
      ],
      [
        "k",
        "et"
      ],
      [
        "s",
        "m"
      ],
      [
        "l",
        "Ã¢u"
      ],
      [
        "Th",
        "u"
      ],
      [
        "nh",
        "Ã©"
      ],
      [
        "su",
        "re"
      ],
      [
        "sh",
        "ould"
      ],
      [
        "d",
        "Ã²ng"
      ],
      [
        "x",
        "á»Ń"
      ],
      [
        "e",
        "ven"
      ],
      [
        "m",
        "Ã´i"
      ],
      [
        "er",
        "a"
      ],
      [
        "o",
        "s"
      ],
      [
        "b",
        "as"
      ],
      [
        "B",
        "an"
      ],
      [
        "t",
        "le"
      ],
      [
        "to",
        "Ã¡n"
      ],
      [
        "ĳ",
        "ng"
      ],
      [
        "v",
        "n"
      ],
      [
        "vÃł",
        "ng"
      ],
      [
        "le",
        "ar"
      ],
      [
        "el",
        "f"
      ],
      [
        "kho",
        "a"
      ],
      [
        "h",
        "tt"
      ],
      [
        "t",
        "á»ĳ"
      ],
      [
        "Ãº",
        "i"
      ],
      [
        "year",
        "s"
      ],
      [
        "chá»ĭ",
        "u"
      ],
      [
        "Äĳ",
        "Ã¢u"
      ],
      [
        "o",
        "wn"
      ],
      [
        "B",
        "e"
      ],
      [
        "ÄĲá»",
        "ĥ"
      ],
      [
        "4",
        "0"
      ],
      [
        "f",
        "t"
      ],
      [
        "ci",
        "al"
      ],
      [
        "ation",
        "al"
      ],
      [
        "ch",
        "Æ°Æ¡ng"
      ],
      [
        "ve",
        "lo"
      ],
      [
        "C",
        "O"
      ],
      [
        "kho",
        "áº£n"
      ],
      [
        "n",
        "er"
      ],
      [
        "ÄĲá»",
        "©c"
      ],
      [
        "b",
        "est"
      ],
      [
        "T",
        "u"
      ],
      [
        "lá»Ľ",
        "p"
      ],
      [
        "Ngo",
        "Ãłi"
      ],
      [
        "2",
        "6"
      ],
      [
        "p",
        "ri"
      ],
      [
        "it",
        "ed"
      ],
      [
        "ká»",
        "ĥ"
      ],
      [
        "b",
        "Æ°á»Ľc"
      ],
      [
        "m",
        "Ã³n"
      ],
      [
        "K",
        "á»"
      ],
      [
        "2",
        "8"
      ],
      [
        "á»Ł",
        "i"
      ],
      [
        "d",
        "Ãłnh"
      ],
      [
        "dá»¥",
        "c"
      ],
      [
        "E",
        "x"
      ],
      [
        "ex",
        "p"
      ],
      [
        "v",
        "iá»ĩn"
      ],
      [
        "su",
        "b"
      ],
      [
        "Ã",
        "Ĥ"
      ],
      [
        "v",
        "el"
      ],
      [
        "si",
        "de"
      ],
      [
        "C",
        "hi"
      ],
      [
        "r",
        "ing"
      ],
      [
        "20",
        "22"
      ],
      [
        "x",
        "a"
      ],
      [
        "as",
        "on"
      ],
      [
        "ch",
        "ang"
      ],
      [
        "lu",
        "áºŃn"
      ],
      [
        "lu",
        "áºŃt"
      ],
      [
        "Äĳo",
        "áº¡n"
      ],
      [
        "áº",
        "¢"
      ],
      [
        "r",
        "is"
      ],
      [
        "qu",
        "Ã¢n"
      ],
      [
        "e",
        "le"
      ],
      [
        "re",
        "g"
      ],
      [
        "s",
        "áº»"
      ],
      [
        "il",
        "ity"
      ],
      [
        "W",
        "or"
      ],
      [
        "n",
        "Ã¢ng"
      ],
      [
        "s",
        "how"
      ],
      [
        "C",
        "Ã¡ch"
      ],
      [
        "th",
        "áº¥t"
      ],
      [
        "Ã¹",
        "i"
      ],
      [
        "giá»",
        "ĳng"
      ],
      [
        "y",
        "s"
      ],
      [
        "f",
        "ind"
      ],
      [
        "m",
        "p"
      ],
      [
        "ar",
        "ch"
      ],
      [
        "S",
        "á»"
      ],
      [
        "Tá»",
        "«"
      ],
      [
        "x",
        "in"
      ],
      [
        "Æ°á»",
        "Ľi"
      ],
      [
        "t",
        "uyá»ĩt"
      ],
      [
        "v",
        "o"
      ],
      [
        "i",
        "Ãªu"
      ],
      [
        "V",
        "Ã¬"
      ],
      [
        "f",
        "er"
      ],
      [
        "ÄĲ",
        "iá»ģu"
      ],
      [
        "V",
        "I"
      ],
      [
        "U",
        "n"
      ],
      [
        "B",
        "á»"
      ],
      [
        "ta",
        "ke"
      ],
      [
        "t",
        "áº£i"
      ],
      [
        "P",
        "l"
      ],
      [
        "th",
        "iá»ĩn"
      ],
      [
        "M",
        "o"
      ],
      [
        "th",
        "áº¯ng"
      ],
      [
        "k",
        "iáº¿m"
      ],
      [
        "h",
        "Ã´m"
      ],
      [
        "H",
        "á»Ļi"
      ],
      [
        "le",
        "t"
      ],
      [
        "Nh",
        "áºŃt"
      ],
      [
        "con",
        "t"
      ],
      [
        "form",
        "ation"
      ],
      [
        "b",
        "iá»ĥn"
      ],
      [
        "0",
        "1"
      ],
      [
        "L",
        "u"
      ],
      [
        "m",
        "Ã£"
      ],
      [
        "2",
        "7"
      ],
      [
        "su",
        "ch"
      ],
      [
        "r",
        "an"
      ],
      [
        "h",
        "ome"
      ],
      [
        "201",
        "6"
      ],
      [
        "us",
        "ed"
      ],
      [
        "in",
        "es"
      ],
      [
        "0",
        "8"
      ],
      [
        "diff",
        "er"
      ],
      [
        "v",
        "Ã²ng"
      ],
      [
        "be",
        "cause"
      ],
      [
        "ho",
        "áº¡ch"
      ],
      [
        "hi",
        "p"
      ],
      [
        "in",
        "o"
      ],
      [
        "lo",
        "t"
      ],
      [
        "pers",
        "on"
      ],
      [
        "Äĳ",
        "Ã´i"
      ],
      [
        "l",
        "ed"
      ],
      [
        "M",
        "a"
      ],
      [
        "mu",
        "ch"
      ],
      [
        "k",
        "ÃŃch"
      ],
      [
        "m",
        "en"
      ],
      [
        "g",
        "Ã¡i"
      ],
      [
        "há»ĵ",
        "i"
      ],
      [
        "Tra",
        "ng"
      ],
      [
        "d",
        "y"
      ],
      [
        "ÄĲ",
        "á»ĵng"
      ],
      [
        "j",
        "o"
      ],
      [
        "§",
        "y"
      ],
      [
        "gr",
        "am"
      ],
      [
        "d",
        "Ãłng"
      ],
      [
        "á»Ń",
        "i"
      ],
      [
        "kh",
        "áº©u"
      ],
      [
        "âĢ",
        "Ķ"
      ],
      [
        "A",
        "d"
      ],
      [
        "hi",
        "m"
      ],
      [
        "Chá»",
        "§"
      ],
      [
        "su",
        "áº¥t"
      ],
      [
        "su",
        "p"
      ],
      [
        "gre",
        "at"
      ],
      [
        "ĭ",
        "p"
      ],
      [
        "f",
        "ol"
      ],
      [
        "Äĳ",
        "au"
      ],
      [
        "phá»",
        "§"
      ],
      [
        "gi",
        "áº£n"
      ],
      [
        "ph",
        "Ã©p"
      ],
      [
        "a",
        "ve"
      ],
      [
        "nh",
        "áº±m"
      ],
      [
        "nghá»",
        "ĭ"
      ],
      [
        "tr",
        "Ã¡i"
      ],
      [
        "f",
        "ac"
      ],
      [
        "e",
        "k"
      ],
      [
        "M",
        "Ã¡y"
      ],
      [
        "m",
        "il"
      ],
      [
        "s",
        "Ã¢n"
      ],
      [
        "Thá»",
        "ĭ"
      ],
      [
        "x",
        "anh"
      ],
      [
        "st",
        "ud"
      ],
      [
        "0",
        "5"
      ],
      [
        "s",
        "k"
      ],
      [
        "m",
        "Ã¹a"
      ],
      [
        "m",
        "is"
      ],
      [
        "ou",
        "se"
      ],
      [
        "ma",
        "in"
      ],
      [
        "bus",
        "iness"
      ],
      [
        "p",
        "on"
      ],
      [
        "P",
        "ar"
      ],
      [
        "L",
        "ong"
      ],
      [
        "n",
        "á»ģn"
      ],
      [
        "s",
        "ol"
      ],
      [
        "ÄĲ",
        "Ã´ng"
      ],
      [
        "w",
        "ard"
      ],
      [
        "c",
        "áºŃp"
      ],
      [
        "th",
        "Æ¡"
      ],
      [
        "nh",
        "iá»ĩt"
      ],
      [
        "h",
        "Ã²a"
      ],
      [
        "di",
        "d"
      ],
      [
        "way",
        "s"
      ],
      [
        "Äĳ",
        "Ã´ng"
      ],
      [
        "2",
        "9"
      ],
      [
        "0",
        "7"
      ],
      [
        "v",
        "áº»"
      ],
      [
        "H",
        "á»ĵ"
      ],
      [
        "h",
        "uyá»ĩn"
      ],
      [
        "V",
        "N"
      ],
      [
        "S",
        "u"
      ],
      [
        "iá»ģ",
        "m"
      ],
      [
        "bá»",
        "ķ"
      ],
      [
        "h",
        "Ãºt"
      ],
      [
        "th",
        "iáº¿u"
      ],
      [
        "Ã¨",
        "n"
      ],
      [
        "at",
        "a"
      ],
      [
        "J",
        "o"
      ],
      [
        "A",
        "M"
      ],
      [
        "ph",
        "Ãºt"
      ],
      [
        "m",
        "Ã´"
      ],
      [
        "su",
        "l"
      ],
      [
        "M",
        "an"
      ],
      [
        "H",
        "CM"
      ],
      [
        "c",
        "are"
      ],
      [
        "u",
        "a"
      ],
      [
        "ģ",
        "m"
      ],
      [
        "iá»",
        "ħ"
      ],
      [
        "Tá»ķ",
        "ng"
      ],
      [
        "b",
        "Ã¡c"
      ],
      [
        "ter",
        "n"
      ],
      [
        "be",
        "ing"
      ],
      [
        "0",
        "3"
      ],
      [
        "ro",
        "om"
      ],
      [
        "velo",
        "p"
      ],
      [
        "c",
        "Æ°"
      ],
      [
        "lo",
        "ad"
      ],
      [
        "r",
        "us"
      ],
      [
        "vá»",
        "įng"
      ],
      [
        "web",
        "site"
      ],
      [
        "al",
        "ity"
      ],
      [
        "h",
        "áº¯n"
      ],
      [
        "v",
        "á»ĳn"
      ],
      [
        "m",
        "ade"
      ],
      [
        "B",
        "áº¯c"
      ],
      [
        "Äĳá»",
        "įc"
      ],
      [
        "n",
        "áº±m"
      ],
      [
        "Ho",
        "a"
      ],
      [
        "ngá»",
        "§"
      ],
      [
        "Äĳ",
        "Ã¡p"
      ],
      [
        "a",
        "th"
      ],
      [
        "tr",
        "áº¯ng"
      ],
      [
        "Gi",
        "Ã¡"
      ],
      [
        "sy",
        "stem"
      ],
      [
        "li",
        "fe"
      ],
      [
        "ph",
        "áº¡m"
      ],
      [
        "Ng",
        "Ãły"
      ],
      [
        "vi",
        "d"
      ],
      [
        "th",
        "Æ°á»Łng"
      ],
      [
        "A",
        "u"
      ],
      [
        "g",
        "hi"
      ],
      [
        "nh",
        "áºŃt"
      ],
      [
        "e",
        "ff"
      ],
      [
        "gÃ³",
        "p"
      ],
      [
        "tu",
        "áº§n"
      ],
      [
        "pl",
        "an"
      ],
      [
        "ÄĳÃ³",
        "ng"
      ],
      [
        "ph",
        "Ã¡"
      ],
      [
        "cho",
        "ol"
      ],
      [
        "B",
        "o"
      ],
      [
        "c",
        "lo"
      ],
      [
        "6",
        "0"
      ],
      [
        "c",
        "á»Ļng"
      ],
      [
        "h",
        "ere"
      ],
      [
        "gi",
        "Ã¡c"
      ],
      [
        "f",
        "ree"
      ],
      [
        "Ã£",
        "y"
      ],
      [
        "nhá»",
        "Ľ"
      ],
      [
        "d",
        "áº§u"
      ],
      [
        "Ch",
        "Ãºng"
      ],
      [
        "te",
        "ch"
      ],
      [
        "Äĳ",
        "Ãłn"
      ],
      [
        "s",
        "Æ¡"
      ],
      [
        "x",
        "Ã©t"
      ],
      [
        "di",
        "tion"
      ],
      [
        "khá»",
        "ıi"
      ],
      [
        "ter",
        "s"
      ],
      [
        "wor",
        "ld"
      ],
      [
        "ch",
        "áº¡y"
      ],
      [
        "S",
        "h"
      ],
      [
        "kh",
        "Äĥn"
      ],
      [
        "Æ",
        "¯"
      ],
      [
        "Th",
        "ere"
      ],
      [
        "as",
        "h"
      ],
      [
        "f",
        "am"
      ],
      [
        "ngo",
        "áº¡i"
      ],
      [
        "Ã",
        "Ģ"
      ],
      [
        "vÃł",
        "i"
      ],
      [
        "D",
        "Æ°Æ¡ng"
      ],
      [
        "c",
        "ap"
      ],
      [
        "s",
        "áº¡ch"
      ],
      [
        "áº§",
        "ng"
      ],
      [
        "do",
        "es"
      ],
      [
        "e",
        "ng"
      ],
      [
        "c",
        "all"
      ],
      [
        "p",
        "t"
      ],
      [
        "W",
        "i"
      ],
      [
        "h",
        "and"
      ],
      [
        "des",
        "ign"
      ],
      [
        "w",
        "in"
      ],
      [
        "Ho",
        "Ãłng"
      ],
      [
        "i",
        "an"
      ],
      [
        "n",
        "Ãłng"
      ],
      [
        "si",
        "gn"
      ],
      [
        "g",
        "á»Ńi"
      ],
      [
        "e",
        "as"
      ],
      [
        "ex",
        "peri"
      ],
      [
        "s",
        "on"
      ],
      [
        "V",
        "Ãł"
      ],
      [
        "k",
        "es"
      ],
      [
        "m",
        "ong"
      ],
      [
        "in",
        "v"
      ],
      [
        "C",
        "ho"
      ],
      [
        "Äĳá»",
        "©ng"
      ],
      [
        "H",
        "áº£i"
      ],
      [
        "E",
        "m"
      ],
      [
        "má»",
        "ģm"
      ],
      [
        "un",
        "i"
      ],
      [
        "pl",
        "ace"
      ],
      [
        "p",
        "ol"
      ],
      [
        "B",
        "ut"
      ],
      [
        "C",
        "am"
      ],
      [
        "f",
        "o"
      ],
      [
        "nh",
        "áº¹"
      ],
      [
        "D",
        "e"
      ],
      [
        "if",
        "ic"
      ],
      [
        "c",
        "Ã¢n"
      ],
      [
        "l",
        "ao"
      ],
      [
        "nh",
        "Ã³m"
      ],
      [
        "ag",
        "ain"
      ],
      [
        "lo",
        "ok"
      ],
      [
        "chá»",
        "¯a"
      ],
      [
        "trá»",
        "Ŀi"
      ],
      [
        "0",
        "4"
      ],
      [
        "s",
        "Ã¢u"
      ],
      [
        "ÄĲá»",
        "ĭ"
      ],
      [
        "m",
        "Ã´n"
      ],
      [
        "se",
        "arch"
      ],
      [
        "ch",
        "iá»ģu"
      ],
      [
        "po",
        "st"
      ],
      [
        "n",
        "um"
      ],
      [
        "T",
        "áº¡i"
      ],
      [
        "l",
        "áº¡nh"
      ],
      [
        "b",
        "áº¡c"
      ],
      [
        "A",
        "c"
      ],
      [
        "s",
        "en"
      ],
      [
        "tr",
        "o"
      ],
      [
        "ch",
        "áº¿t"
      ],
      [
        "be",
        "fore"
      ],
      [
        "Ãº",
        "a"
      ],
      [
        "con",
        "tr"
      ],
      [
        "ch",
        "ar"
      ],
      [
        "ph",
        "á»ĳi"
      ],
      [
        "r",
        "un"
      ],
      [
        "T",
        "Ã¢y"
      ],
      [
        "in",
        "a"
      ],
      [
        "tho",
        "se"
      ],
      [
        "Th",
        "Ã¡i"
      ],
      [
        "m",
        "iá»ħn"
      ],
      [
        "ing",
        "s"
      ],
      [
        "e",
        "ach"
      ],
      [
        "al",
        "e"
      ],
      [
        "in",
        "formation"
      ],
      [
        "res",
        "s"
      ],
      [
        "v",
        "an"
      ],
      [
        "nÃ³",
        "ng"
      ],
      [
        "ch",
        "Ãºt"
      ],
      [
        "tr",
        "áº£i"
      ],
      [
        "S",
        "p"
      ],
      [
        "c",
        "áº£i"
      ],
      [
        "ch",
        "Ã³ng"
      ],
      [
        "ng",
        "uy"
      ],
      [
        "tr",
        "Ã¡nh"
      ],
      [
        "201",
        "5"
      ],
      [
        "C",
        "l"
      ],
      [
        "a",
        "z"
      ],
      [
        "C",
        "an"
      ],
      [
        "ch",
        "Äĥm"
      ],
      [
        "j",
        "ect"
      ],
      [
        "D",
        "u"
      ],
      [
        "nghá»",
        "ī"
      ],
      [
        "h",
        "áº¥p"
      ],
      [
        "m",
        "Ã¡i"
      ],
      [
        "0",
        "2"
      ],
      [
        "d",
        "et"
      ],
      [
        "ÃĶ",
        "ng"
      ],
      [
        "su",
        "ng"
      ],
      [
        "whi",
        "le"
      ],
      [
        "Th",
        "Ã´ng"
      ],
      [
        "E",
        "R"
      ],
      [
        "a",
        "tive"
      ],
      [
        "ngh",
        "iÃªn"
      ],
      [
        "ĵ",
        "n"
      ],
      [
        "S",
        "Æ¡n"
      ],
      [
        "i",
        "ght"
      ],
      [
        "ng",
        "Ã¢n"
      ],
      [
        "ag",
        "es"
      ],
      [
        "pr",
        "of"
      ],
      [
        "A",
        "N"
      ],
      [
        "o",
        "c"
      ],
      [
        "l",
        "it"
      ],
      [
        "r",
        "áº»"
      ],
      [
        "v",
        "ay"
      ],
      [
        "te",
        "am"
      ],
      [
        "ngh",
        "iá»ģn"
      ],
      [
        "chá»ī",
        "nh"
      ],
      [
        "D",
        "i"
      ],
      [
        "to",
        "o"
      ],
      [
        "h",
        "áºŃu"
      ],
      [
        "T",
        "T"
      ],
      [
        "C",
        "ol"
      ],
      [
        "ou",
        "p"
      ],
      [
        "ı",
        "ng"
      ],
      [
        "r",
        "on"
      ],
      [
        "g",
        "y"
      ],
      [
        "ch",
        "áº³ng"
      ],
      [
        "B",
        "áº£n"
      ],
      [
        "t",
        "el"
      ],
      [
        "chá»",
        "ĵng"
      ],
      [
        "ch",
        "e"
      ],
      [
        "Tr",
        "Æ°á»Ŀng"
      ],
      [
        "com",
        "ple"
      ],
      [
        "X",
        "u"
      ],
      [
        "pl",
        "ic"
      ],
      [
        "re",
        "ally"
      ],
      [
        "st",
        "art"
      ],
      [
        "si",
        "ve"
      ],
      [
        "ti",
        "v"
      ],
      [
        "Ã³",
        "i"
      ],
      [
        "¥",
        "ng"
      ],
      [
        "L",
        "iÃªn"
      ],
      [
        "ph",
        "áº£n"
      ],
      [
        "de",
        "velop"
      ],
      [
        "S",
        "er"
      ],
      [
        "á»Ļ",
        "n"
      ],
      [
        "n",
        "ess"
      ],
      [
        "le",
        "ad"
      ],
      [
        "thu",
        "áºŃn"
      ],
      [
        "ı",
        "a"
      ],
      [
        "m",
        "áº¯c"
      ],
      [
        "th",
        "ink"
      ],
      [
        "d",
        "uy"
      ],
      [
        "má»",
        "¹"
      ],
      [
        "th",
        "Ã¡i"
      ],
      [
        "kh",
        "Ã¡m"
      ],
      [
        "k",
        "o"
      ],
      [
        "x",
        "uyÃªn"
      ],
      [
        "T",
        "R"
      ],
      [
        "ec",
        "k"
      ],
      [
        "I",
        "N"
      ],
      [
        "c",
        "our"
      ],
      [
        "Äĳ",
        "áº£o"
      ],
      [
        "f",
        "l"
      ],
      [
        "h",
        "y"
      ],
      [
        "h",
        "u"
      ],
      [
        "sá»Ń",
        "a"
      ],
      [
        "t",
        "áº§ng"
      ],
      [
        "in",
        "ce"
      ],
      [
        "m",
        "Ã¡u"
      ],
      [
        "gi",
        "áº¥y"
      ],
      [
        "M",
        "y"
      ],
      [
        "Äĳ",
        "Ã´"
      ],
      [
        "th",
        "áº¥p"
      ],
      [
        "at",
        "t"
      ],
      [
        "kh",
        "áº£o"
      ],
      [
        "t",
        "ai"
      ],
      [
        "vá»",
        "£"
      ],
      [
        "Ã£",
        "n"
      ],
      [
        "n",
        "á»ĳi"
      ],
      [
        "A",
        "T"
      ],
      [
        "x",
        "i"
      ],
      [
        "Äĳá»",
        "ı"
      ],
      [
        "Thá»",
        "©"
      ],
      [
        "m",
        "Ãłn"
      ],
      [
        "X",
        "em"
      ],
      [
        "s",
        "of"
      ],
      [
        "kÃ©",
        "o"
      ],
      [
        "4",
        "5"
      ],
      [
        "g",
        "in"
      ],
      [
        "M",
        "i"
      ],
      [
        "H",
        "u"
      ],
      [
        "iá»ħ",
        "m"
      ],
      [
        "The",
        "y"
      ],
      [
        "t",
        "uyá»ĥn"
      ],
      [
        "we",
        "en"
      ],
      [
        "log",
        "y"
      ],
      [
        "Th",
        "iÃªn"
      ],
      [
        "H",
        "Ãłn"
      ],
      [
        "c",
        "Æ°á»Ŀi"
      ],
      [
        "Â",
        "»"
      ],
      [
        "w",
        "r"
      ],
      [
        "differ",
        "ent"
      ],
      [
        "ch",
        "áº¯n"
      ],
      [
        "em",
        "p"
      ],
      [
        "pro",
        "cess"
      ],
      [
        "z",
        "e"
      ],
      [
        "si",
        "Ãªu"
      ],
      [
        "kh",
        "Ã³a"
      ],
      [
        "f",
        "ri"
      ],
      [
        "th",
        "iÃªn"
      ],
      [
        "p",
        "ur"
      ],
      [
        "t",
        "Ã³c"
      ],
      [
        "hÃ£",
        "ng"
      ],
      [
        "9",
        "9"
      ],
      [
        "k",
        "ia"
      ],
      [
        "un",
        "ity"
      ],
      [
        "in",
        "st"
      ],
      [
        "p",
        "ay"
      ],
      [
        "v",
        "ai"
      ],
      [
        "h",
        "Æ¡i"
      ],
      [
        "re",
        "l"
      ],
      [
        "ar",
        "ound"
      ],
      [
        "Ã¹",
        "y"
      ],
      [
        "R",
        "es"
      ],
      [
        "go",
        "ing"
      ],
      [
        "t",
        "áºŃn"
      ],
      [
        "lá»",
        "ħ"
      ],
      [
        "tá»",
        "ĭch"
      ],
      [
        "nh",
        "áº¡c"
      ],
      [
        "qu",
        "ay"
      ],
      [
        "3",
        "5"
      ],
      [
        "x",
        "Ãºc"
      ],
      [
        "g",
        "g"
      ],
      [
        "thá»",
        "Ń"
      ],
      [
        "b",
        "Ã¡nh"
      ],
      [
        "G",
        "iá»"
      ],
      [
        "S",
        "E"
      ],
      [
        "Äĳ",
        "em"
      ],
      [
        "lo",
        "o"
      ],
      [
        "m",
        "áºŃt"
      ],
      [
        "c",
        "le"
      ],
      [
        "tur",
        "n"
      ],
      [
        "P",
        "re"
      ],
      [
        "pro",
        "vi"
      ],
      [
        "li",
        "ght"
      ],
      [
        "H",
        "iá»ĩn"
      ],
      [
        "Äĳ",
        "Ãło"
      ],
      [
        "ch",
        "a"
      ],
      [
        "L",
        "an"
      ],
      [
        "lo",
        "c"
      ],
      [
        "G",
        "r"
      ],
      [
        "k",
        "ÃŃnh"
      ],
      [
        "us",
        "ing"
      ],
      [
        "I",
        "s"
      ],
      [
        "ph",
        "iÃªn"
      ],
      [
        "fol",
        "low"
      ],
      [
        "vide",
        "o"
      ],
      [
        "h",
        "iá»ĥm"
      ],
      [
        "b",
        "re"
      ],
      [
        "co",
        "ver"
      ],
      [
        "C",
        "u"
      ],
      [
        "P",
        "r"
      ],
      [
        "m",
        "áº¡i"
      ],
      [
        "bl",
        "ic"
      ],
      [
        "chá»",
        "Ĺ"
      ],
      [
        "áº·",
        "n"
      ],
      [
        "l",
        "ast"
      ],
      [
        "Äĳ",
        "Ãªm"
      ],
      [
        "th",
        "Ã´i"
      ],
      [
        "m",
        "iá»ģn"
      ],
      [
        "Ľ",
        "m"
      ],
      [
        "l",
        "Ä©nh"
      ],
      [
        "nghá»",
        "ģ"
      ],
      [
        "cu",
        "sto"
      ],
      [
        "pro",
        "gram"
      ],
      [
        "Tr",
        "áº§n"
      ],
      [
        "x",
        "áº£y"
      ],
      [
        "s",
        "it"
      ],
      [
        "d",
        "Ã¢y"
      ],
      [
        "E",
        "n"
      ],
      [
        "c",
        "li"
      ],
      [
        "s",
        "Æ°"
      ],
      [
        "th",
        "Ãº"
      ],
      [
        "201",
        "4"
      ],
      [
        "re",
        "ct"
      ],
      [
        "i",
        "gh"
      ],
      [
        "h",
        "áº¡i"
      ],
      [
        "k",
        "Ãª"
      ],
      [
        "lÃ£",
        "nh"
      ],
      [
        "Th",
        "áº¿"
      ],
      [
        "v",
        "Æ°á»£t"
      ],
      [
        "N",
        "gh"
      ],
      [
        "he",
        "ad"
      ],
      [
        "tr",
        "Ã¡ch"
      ],
      [
        "B",
        "Ãłi"
      ],
      [
        "th",
        "ao"
      ],
      [
        "T",
        "in"
      ],
      [
        "qu",
        "anh"
      ],
      [
        "3",
        "6"
      ],
      [
        "qu",
        "en"
      ],
      [
        "Chá»",
        "ī"
      ],
      [
        "or",
        "der"
      ],
      [
        "es",
        "sion"
      ],
      [
        "x",
        "o"
      ],
      [
        "g",
        "am"
      ],
      [
        "qu",
        "es"
      ],
      [
        "Wh",
        "at"
      ],
      [
        "g",
        "a"
      ],
      [
        "u",
        "res"
      ],
      [
        "p",
        "ut"
      ],
      [
        "ren",
        "t"
      ],
      [
        "d",
        "áº¥u"
      ],
      [
        "n",
        "on"
      ],
      [
        "qu",
        "e"
      ],
      [
        "gen",
        "er"
      ],
      [
        "sti",
        "ll"
      ],
      [
        "b",
        "al"
      ],
      [
        "s",
        "ame"
      ],
      [
        "ch",
        "áº¥p"
      ],
      [
        "re",
        "al"
      ],
      [
        "thu",
        "Ãª"
      ],
      [
        "h",
        "uy"
      ],
      [
        "tr",
        "ai"
      ],
      [
        "áºµ",
        "n"
      ],
      [
        "m",
        "áº·c"
      ],
      [
        "c",
        "Æ°á»Ŀng"
      ],
      [
        "H",
        "ome"
      ],
      [
        "I",
        "I"
      ],
      [
        "h",
        "áº¡"
      ],
      [
        "tr",
        "ic"
      ],
      [
        "x",
        "á»"
      ],
      [
        "T",
        "e"
      ],
      [
        "d",
        "ri"
      ],
      [
        "M",
        "e"
      ],
      [
        "l",
        "Ã¡"
      ],
      [
        "sá»",
        "¯a"
      ],
      [
        "s",
        "ed"
      ],
      [
        "ng",
        "on"
      ],
      [
        "Äĳ",
        "áº©y"
      ],
      [
        "k",
        "iá»ĥu"
      ],
      [
        "R",
        "E"
      ],
      [
        "et",
        "y"
      ],
      [
        "off",
        "er"
      ],
      [
        "8",
        "0"
      ],
      [
        "201",
        "3"
      ],
      [
        "es",
        "e"
      ],
      [
        "as",
        "k"
      ],
      [
        "ng",
        "Ã´i"
      ],
      [
        "m",
        "m"
      ],
      [
        "ch",
        "ild"
      ],
      [
        "H",
        "Ã£y"
      ],
      [
        "fe",
        "el"
      ],
      [
        "Ch",
        "Ã¢u"
      ],
      [
        "l",
        "ist"
      ],
      [
        "ra",
        "c"
      ],
      [
        "C",
        "ar"
      ],
      [
        "s",
        "Ã³c"
      ],
      [
        "mon",
        "th"
      ],
      [
        "t",
        "á»ĳc"
      ],
      [
        "b",
        "áºŃt"
      ],
      [
        "Ph",
        "Ã¡p"
      ],
      [
        "im",
        "port"
      ],
      [
        "ad",
        "d"
      ],
      [
        "bu",
        "á»ķi"
      ],
      [
        "de",
        "c"
      ],
      [
        "si",
        "ble"
      ],
      [
        "bo",
        "th"
      ],
      [
        "U",
        "B"
      ],
      [
        "Tr",
        "á»"
      ],
      [
        "Ng",
        "uyÃªn"
      ],
      [
        "ph",
        "á»ķ"
      ],
      [
        "t",
        "Æ°á»Ľng"
      ],
      [
        "Ãµ",
        "i"
      ],
      [
        "Ã¨",
        "m"
      ],
      [
        "thá»§",
        "y"
      ],
      [
        "bet",
        "ween"
      ],
      [
        "Thá»",
        "§"
      ],
      [
        "sá»",
        "Ľm"
      ],
      [
        "Ph",
        "Ãº"
      ],
      [
        "ar",
        "m"
      ],
      [
        "comp",
        "any"
      ],
      [
        "á»ķ",
        "n"
      ],
      [
        "t",
        "iá»ĥu"
      ],
      [
        "tr",
        "ans"
      ],
      [
        "g",
        "er"
      ],
      [
        "li",
        "nh"
      ],
      [
        "Po",
        "st"
      ],
      [
        "kh",
        "áº¯c"
      ],
      [
        "w",
        "s"
      ],
      [
        "ÄĲ",
        "Ãł"
      ],
      [
        "h",
        "Æ°Æ¡ng"
      ],
      [
        "one",
        "y"
      ],
      [
        "b",
        "el"
      ],
      [
        "Vi",
        "et"
      ],
      [
        "ec",
        "ts"
      ],
      [
        "l",
        "an"
      ],
      [
        "po",
        "int"
      ],
      [
        "gá»",
        "Ĺ"
      ],
      [
        "end",
        "s"
      ],
      [
        "n",
        "Ã´ng"
      ],
      [
        "col",
        "le"
      ],
      [
        "Wh",
        "en"
      ],
      [
        "A",
        "ll"
      ],
      [
        "a",
        "x"
      ],
      [
        "th",
        "áº©m"
      ],
      [
        "l",
        "uyá»ĩn"
      ],
      [
        "s",
        "elf"
      ],
      [
        "chá»",
        "¯"
      ],
      [
        "M",
        "ay"
      ],
      [
        "ph",
        "one"
      ],
      [
        "l",
        "á»Ļ"
      ],
      [
        "n",
        "áº·ng"
      ],
      [
        "a",
        "ff"
      ],
      [
        "lo",
        "y"
      ],
      [
        "§",
        "ng"
      ],
      [
        "tr",
        "Ã¬"
      ],
      [
        "V",
        "iá»ĩc"
      ],
      [
        "s",
        "uy"
      ],
      [
        "nhá»",
        "Ŀ"
      ],
      [
        "d",
        "ata"
      ],
      [
        "chá»",
        "©a"
      ],
      [
        "v",
        "ari"
      ],
      [
        "f",
        "ound"
      ],
      [
        "r",
        "Äĥng"
      ],
      [
        "ace",
        "book"
      ],
      [
        "ou",
        "ght"
      ],
      [
        "lá»",
        "Ĺi"
      ],
      [
        "av",
        "ail"
      ],
      [
        "t",
        "Ã´"
      ],
      [
        "ke",
        "ep"
      ],
      [
        "he",
        "alth"
      ],
      [
        "th",
        "ai"
      ],
      [
        "K",
        "inh"
      ],
      [
        "mar",
        "ket"
      ],
      [
        "ent",
        "er"
      ],
      [
        "US",
        "D"
      ],
      [
        "qu",
        "áºŃn"
      ],
      [
        "k",
        "i"
      ],
      [
        "nh",
        "iá»ħm"
      ],
      [
        "in",
        "cre"
      ],
      [
        "B",
        "Ãªn"
      ],
      [
        "á»",
        "ŀ"
      ],
      [
        "ta",
        "ble"
      ],
      [
        "iáº¿",
        "p"
      ],
      [
        "L",
        "Ãª"
      ],
      [
        "at",
        "ure"
      ],
      [
        "we",
        "ek"
      ],
      [
        "S",
        "T"
      ],
      [
        "tic",
        "al"
      ],
      [
        "f",
        "il"
      ],
      [
        "ng",
        "á»ĵi"
      ],
      [
        "po",
        "si"
      ],
      [
        "or",
        "gan"
      ],
      [
        "c",
        "Æ°á»£c"
      ],
      [
        "b",
        "it"
      ],
      [
        "w",
        "ater"
      ],
      [
        "qu",
        "áº§n"
      ],
      [
        "5",
        "00"
      ],
      [
        "ap",
        "pro"
      ],
      [
        "Ì",
        "ģ"
      ],
      [
        "ic",
        "s"
      ],
      [
        "kh",
        "á»Łi"
      ],
      [
        "am",
        "in"
      ],
      [
        "ã",
        "Ģ"
      ],
      [
        "res",
        "pon"
      ],
      [
        "Ã£",
        "o"
      ],
      [
        "s",
        "áºµn"
      ],
      [
        "we",
        "ver"
      ],
      [
        "Qu",
        "áº£ng"
      ],
      [
        "y",
        "Ãªn"
      ],
      [
        "h",
        "app"
      ],
      [
        "201",
        "2"
      ],
      [
        "c",
        "áºŃu"
      ],
      [
        "s",
        "a"
      ],
      [
        "op",
        "en"
      ],
      [
        "Wi",
        "th"
      ],
      [
        "19",
        "9"
      ],
      [
        "po",
        "wer"
      ],
      [
        "il",
        "i"
      ],
      [
        "T",
        "V"
      ],
      [
        "ch",
        "Ã¢u"
      ],
      [
        "nu",
        "Ã´i"
      ],
      [
        "O",
        "N"
      ],
      [
        "áº",
        "¤"
      ],
      [
        "lo",
        "ve"
      ],
      [
        "al",
        "low"
      ],
      [
        "n",
        "a"
      ],
      [
        "al",
        "i"
      ],
      [
        "U",
        "ni"
      ],
      [
        "âĢ",
        "¢"
      ],
      [
        "fe",
        "w"
      ],
      [
        "st",
        "ar"
      ],
      [
        "serv",
        "ice"
      ],
      [
        "A",
        "R"
      ],
      [
        "tim",
        "es"
      ],
      [
        "Ph",
        "Ã²ng"
      ],
      [
        "B",
        "a"
      ],
      [
        "3",
        "1"
      ],
      [
        "f",
        "u"
      ],
      [
        "Ch",
        "ÃŃ"
      ],
      [
        "ro",
        "ss"
      ],
      [
        "gi",
        "ai"
      ],
      [
        "kh",
        "Ã´"
      ],
      [
        "experi",
        "ence"
      ],
      [
        "re",
        "sul"
      ],
      [
        "t",
        "áº¥n"
      ],
      [
        "thing",
        "s"
      ],
      [
        "ká»",
        "·"
      ],
      [
        "b",
        "ar"
      ],
      [
        "m",
        "it"
      ],
      [
        "áº¢",
        "nh"
      ],
      [
        "s",
        "chool"
      ],
      [
        "pres",
        "ent"
      ],
      [
        "le",
        "g"
      ],
      [
        "N",
        "Äĥm"
      ],
      [
        "t",
        "Æ°Æ¡i"
      ],
      [
        "sup",
        "port"
      ],
      [
        "mer",
        "ic"
      ],
      [
        "ra",
        "ng"
      ],
      [
        "b",
        "áº£ng"
      ],
      [
        "c",
        "áº¥u"
      ],
      [
        "c",
        "en"
      ],
      [
        "gi",
        "ng"
      ],
      [
        "C",
        "ity"
      ],
      [
        "qu",
        "Ã¡n"
      ],
      [
        "ww",
        "w"
      ],
      [
        "Ph",
        "Æ°Æ¡ng"
      ],
      [
        "K",
        "im"
      ],
      [
        "t",
        "áº·ng"
      ],
      [
        "str",
        "u"
      ],
      [
        "si",
        "der"
      ],
      [
        "l",
        "áº½"
      ],
      [
        "In",
        "ter"
      ],
      [
        "Th",
        "Ã¡ng"
      ],
      [
        "g",
        "le"
      ],
      [
        "htt",
        "ps"
      ],
      [
        "ic",
        "i"
      ],
      [
        "cam",
        "era"
      ],
      [
        "le",
        "vel"
      ],
      [
        "l",
        "iá»ģn"
      ],
      [
        "th",
        "Ãºc"
      ],
      [
        "de",
        "p"
      ],
      [
        "B",
        "áº£o"
      ],
      [
        "T",
        "Ã¢n"
      ],
      [
        "produ",
        "c"
      ],
      [
        "or",
        "d"
      ],
      [
        "ph",
        "o"
      ],
      [
        "b",
        "áº¿p"
      ],
      [
        "bu",
        "il"
      ],
      [
        "Å©",
        "i"
      ],
      [
        "ul",
        "ar"
      ],
      [
        "Ng",
        "á»įc"
      ],
      [
        "A",
        "meric"
      ],
      [
        "k",
        "im"
      ],
      [
        "b",
        "ers"
      ],
      [
        "is",
        "su"
      ],
      [
        "ng",
        "Äĥn"
      ],
      [
        "t",
        "áº§m"
      ],
      [
        "Äĳ",
        "en"
      ],
      [
        "w",
        "on"
      ],
      [
        "Tr",
        "Æ°á»Ľc"
      ],
      [
        "us",
        "tr"
      ],
      [
        "at",
        "ur"
      ],
      [
        "m",
        "em"
      ],
      [
        "mu",
        "l"
      ],
      [
        "vi",
        "Ãªm"
      ],
      [
        "Thá»",
        "Ŀi"
      ],
      [
        "th",
        "áº£o"
      ],
      [
        "f",
        "act"
      ],
      [
        "n",
        "iá»ĩm"
      ],
      [
        "x",
        "áº¿p"
      ],
      [
        "m",
        "áº¥y"
      ],
      [
        "th",
        "iá»ĩu"
      ],
      [
        "R",
        "i"
      ],
      [
        "si",
        "d"
      ],
      [
        "du",
        "ring"
      ],
      [
        "th",
        "ree"
      ],
      [
        "c",
        "áº¯t"
      ],
      [
        "avail",
        "able"
      ],
      [
        "bet",
        "ter"
      ],
      [
        "sm",
        "all"
      ],
      [
        "7",
        "0"
      ],
      [
        "A",
        "p"
      ],
      [
        "l",
        "áº¡c"
      ],
      [
        "on",
        "s"
      ],
      [
        "t",
        "es"
      ],
      [
        "c",
        "ou"
      ],
      [
        "d",
        "áº¡y"
      ],
      [
        "inclu",
        "ding"
      ],
      [
        "ngá»",
        "Ŀ"
      ],
      [
        "b",
        "ro"
      ],
      [
        "P",
        "há»"
      ],
      [
        "t",
        "an"
      ],
      [
        "ri",
        "d"
      ],
      [
        "Ká»",
        "³"
      ],
      [
        "ful",
        "l"
      ],
      [
        "con",
        "tin"
      ],
      [
        "co",
        "st"
      ],
      [
        "at",
        "or"
      ],
      [
        "con",
        "d"
      ],
      [
        "iáº¿",
        "ng"
      ],
      [
        "are",
        "n"
      ],
      [
        "sá»",
        "£"
      ],
      [
        "iz",
        "ed"
      ],
      [
        "H",
        "ai"
      ],
      [
        "tic",
        "s"
      ],
      [
        "b",
        "ig"
      ],
      [
        "giÃ¡",
        "m"
      ],
      [
        "so",
        "Ã¡t"
      ],
      [
        "l",
        "áº¯p"
      ],
      [
        "f",
        "ic"
      ],
      [
        "thá»ĭ",
        "t"
      ],
      [
        "ng",
        "á»¯"
      ],
      [
        "ÄĲ",
        "á»ĳi"
      ],
      [
        "num",
        "ber"
      ],
      [
        "bas",
        "ed"
      ],
      [
        "am",
        "p"
      ],
      [
        "re",
        "ce"
      ],
      [
        "áº¹",
        "n"
      ],
      [
        "al",
        "ways"
      ],
      [
        "with",
        "out"
      ],
      [
        "day",
        "s"
      ],
      [
        "lit",
        "tle"
      ],
      [
        "d",
        "ra"
      ],
      [
        "ÄĲ",
        "áº·c"
      ],
      [
        "en",
        "er"
      ],
      [
        "A",
        "C"
      ],
      [
        "©",
        "t"
      ],
      [
        "F",
        "e"
      ],
      [
        "c",
        "Å©"
      ],
      [
        "bo",
        "dy"
      ],
      [
        "cu",
        "l"
      ],
      [
        "ish",
        "ed"
      ],
      [
        "Gi",
        "ang"
      ],
      [
        "ab",
        "ility"
      ],
      [
        "u",
        "ro"
      ],
      [
        "Ã²",
        "i"
      ],
      [
        "c",
        "ell"
      ],
      [
        "el",
        "d"
      ],
      [
        "Ch",
        "Æ°Æ¡ng"
      ],
      [
        "t",
        "uy"
      ],
      [
        "3",
        "3"
      ],
      [
        "th",
        "ough"
      ],
      [
        "M",
        "on"
      ],
      [
        "mu",
        "st"
      ],
      [
        "P",
        "M"
      ],
      [
        "ect",
        "ed"
      ],
      [
        "chá»",
        "©"
      ],
      [
        "fam",
        "ily"
      ],
      [
        "chang",
        "e"
      ],
      [
        "A",
        "t"
      ],
      [
        "import",
        "ant"
      ],
      [
        "S",
        "á»Ł"
      ],
      [
        "h",
        "áº¡ng"
      ],
      [
        "in",
        "s"
      ],
      [
        "t",
        "or"
      ],
      [
        "pro",
        "ble"
      ],
      [
        "ard",
        "s"
      ],
      [
        "ke",
        "y"
      ],
      [
        "oo",
        "gle"
      ],
      [
        "S",
        "he"
      ],
      [
        "sh",
        "are"
      ],
      [
        "Sá»",
        "±"
      ],
      [
        "P",
        "H"
      ],
      [
        "our",
        "s"
      ],
      [
        "go",
        "t"
      ],
      [
        "b",
        "en"
      ],
      [
        "s",
        "pe"
      ],
      [
        "G",
        "ia"
      ],
      [
        "L",
        "E"
      ],
      [
        "read",
        "y"
      ],
      [
        "há»ĵ",
        "ng"
      ],
      [
        "h",
        "Ãłi"
      ],
      [
        "C",
        "Ã´"
      ],
      [
        "l",
        "ai"
      ],
      [
        "it",
        "ch"
      ],
      [
        "Â",
        "·"
      ],
      [
        "mi",
        "ght"
      ],
      [
        "b",
        "áº§u"
      ],
      [
        "l",
        "ing"
      ],
      [
        "c",
        "áº§m"
      ],
      [
        "b",
        "ed"
      ],
      [
        "L",
        "a"
      ],
      [
        "per",
        "form"
      ],
      [
        "ÄĲ",
        "áº£ng"
      ],
      [
        "ng",
        "Å©"
      ],
      [
        "Tr",
        "Ãªn"
      ],
      [
        "cu",
        "s"
      ],
      [
        "Nh",
        "Æ°"
      ],
      [
        "th",
        "Äĥm"
      ],
      [
        "h",
        "áº¡t"
      ],
      [
        "n",
        "ec"
      ],
      [
        "th",
        "or"
      ],
      [
        "g",
        "á»ĳc"
      ],
      [
        "H",
        "Ã²a"
      ],
      [
        "m",
        "Æ¡"
      ],
      [
        "b",
        "oo"
      ],
      [
        "Nh",
        "Ã¢n"
      ],
      [
        "c",
        "Ã¡nh"
      ],
      [
        "cl",
        "ass"
      ],
      [
        "um",
        "p"
      ],
      [
        "5",
        "5"
      ],
      [
        "v",
        "ice"
      ],
      [
        "v",
        "a"
      ],
      [
        "dá»",
        "¯"
      ],
      [
        "kh",
        "á»ķ"
      ],
      [
        "vers",
        "ity"
      ],
      [
        "d",
        "Ã¡ng"
      ],
      [
        "¥",
        "p"
      ],
      [
        "so",
        "ci"
      ],
      [
        "Ph",
        "ong"
      ],
      [
        "pro",
        "per"
      ],
      [
        "th",
        "áº³ng"
      ],
      [
        "s",
        "al"
      ],
      [
        "T",
        "op"
      ],
      [
        "Äĳ",
        "Ã¨n"
      ],
      [
        "l",
        "áº¡"
      ],
      [
        "al",
        "le"
      ],
      [
        "n",
        "iÃªn"
      ],
      [
        "H",
        "y"
      ],
      [
        "W",
        "in"
      ],
      [
        "ÄĲá»ĭ",
        "a"
      ],
      [
        "un",
        "d"
      ],
      [
        "s",
        "ong"
      ],
      [
        "D",
        "is"
      ],
      [
        "e",
        "y"
      ],
      [
        "some",
        "thing"
      ],
      [
        "st",
        "er"
      ],
      [
        "e",
        "qu"
      ],
      [
        "ex",
        "am"
      ],
      [
        "p",
        "ic"
      ],
      [
        "r",
        "á»Ńa"
      ],
      [
        "nghi",
        "Ãªm"
      ],
      [
        "k",
        "iá»ĩm"
      ],
      [
        "re",
        "view"
      ],
      [
        "Xu",
        "Ã¢n"
      ],
      [
        "Th",
        "iáº¿t"
      ],
      [
        "em",
        "ail"
      ],
      [
        "O",
        "ne"
      ],
      [
        "9",
        "0"
      ],
      [
        "a",
        "h"
      ],
      [
        "I",
        "S"
      ],
      [
        "bá»",
        "ģn"
      ],
      [
        "Äĳ",
        "ÃŃch"
      ],
      [
        "Th",
        "at"
      ],
      [
        "h",
        "ard"
      ],
      [
        "Ì",
        "Ģ"
      ],
      [
        "st",
        "ate"
      ],
      [
        "L",
        "Ã½"
      ],
      [
        "3",
        "8"
      ],
      [
        "gra",
        "ph"
      ],
      [
        "d",
        "em"
      ],
      [
        "m",
        "á»ĳi"
      ],
      [
        "i",
        "o"
      ],
      [
        "con",
        "sider"
      ],
      [
        "B",
        "y"
      ],
      [
        "ÄĳÃ³",
        "n"
      ],
      [
        "co",
        "i"
      ],
      [
        "n",
        "Ã©t"
      ],
      [
        "P",
        "T"
      ],
      [
        "n",
        "ext"
      ],
      [
        "V",
        "áºŃy"
      ],
      [
        "serv",
        "ices"
      ],
      [
        "b",
        "all"
      ],
      [
        "B",
        "ar"
      ],
      [
        "o",
        "per"
      ],
      [
        "bu",
        "á»Ļc"
      ],
      [
        "Wor",
        "ld"
      ],
      [
        "t",
        "Ã¹y"
      ],
      [
        "Äĳ",
        "á»ĳc"
      ],
      [
        "dá»",
        "ĭ"
      ],
      [
        "ti",
        "l"
      ],
      [
        "t",
        "á»Ļc"
      ],
      [
        "S",
        "y"
      ],
      [
        "s",
        "áº¡n"
      ],
      [
        "Ho",
        "w"
      ],
      [
        "in",
        "i"
      ],
      [
        "in",
        "di"
      ],
      [
        "N",
        "inh"
      ],
      [
        "I",
        "á»"
      ],
      [
        "wor",
        "king"
      ],
      [
        "el",
        "s"
      ],
      [
        "d",
        "áº§n"
      ],
      [
        "S",
        "áº£n"
      ],
      [
        "ph",
        "a"
      ],
      [
        "iá»ĩ",
        "ng"
      ],
      [
        "B",
        "u"
      ],
      [
        "h",
        "ouse"
      ],
      [
        "pro",
        "vide"
      ],
      [
        "gi",
        "ve"
      ],
      [
        "C",
        "A"
      ],
      [
        "i",
        "le"
      ],
      [
        "e",
        "o"
      ],
      [
        "á»¯",
        "a"
      ],
      [
        "ac",
        "tu"
      ],
      [
        "vá»",
        "Ŀi"
      ],
      [
        "chá»",
        "Ŀ"
      ],
      [
        "Ch",
        "Ãºa"
      ],
      [
        "UB",
        "ND"
      ],
      [
        "an",
        "other"
      ],
      [
        "an",
        "n"
      ],
      [
        "ng",
        "á»į"
      ],
      [
        "e",
        "ver"
      ],
      [
        "ph",
        "Ãºc"
      ],
      [
        "ag",
        "o"
      ],
      [
        "ÃĤ",
        "u"
      ],
      [
        "qu",
        "ality"
      ],
      [
        "ph",
        "Ãª"
      ],
      [
        "s",
        "áº¯p"
      ],
      [
        "L",
        "Ãłm"
      ],
      [
        "tr",
        "ao"
      ],
      [
        "kh",
        "á»ĳi"
      ],
      [
        "x",
        "ong"
      ],
      [
        "¯",
        "ng"
      ],
      [
        "bá»",
        "©c"
      ],
      [
        "ho",
        "ld"
      ],
      [
        "T",
        "Ãłi"
      ],
      [
        "Ã³",
        "t"
      ],
      [
        "k",
        "en"
      ],
      [
        "b",
        "ÃŃ"
      ],
      [
        "j",
        "ob"
      ],
      [
        "m",
        "áº¡ch"
      ],
      [
        "with",
        "in"
      ],
      [
        "J",
        "u"
      ],
      [
        "d",
        "r"
      ],
      [
        "G",
        "ame"
      ],
      [
        "man",
        "ag"
[...]
